0xc0101000 0xfe3ae49d
0xc0101004 0xfaa8ed9b
0xc0101008 0x01240442
0xc010100c 0xe8eee169
0xc0101010 0xf3faf17e
0xc0101014 0xdadbde2e
0xc0101018 0xe5c91e7e
0xc010101c 0xf0a2d650
0xc0101020 0x2272dcec
0xc0101024 0x1a78f91f
0xc0101028 0x00000000
0xc010102c 0x00000000
0xc0100000 0x6e1d37b3
0xc0100004 0x531ded3b
0xc0100008 0x41a613cf
0xc010000c 0xad95c8da
0xc0100010 0x26d15953
0xc0100014 0x4c03ee8e
0xc0100018 0xceab0914
0xc010001c 0x2350c2d0
0xc0100020 0xf2ae1be0
0xc0100024 0xcd102393
0xc0100028 0x43356103
0xc010002c 0xc106a1be
0xc0100030 0xb3e1a4ab
0xc0100034 0x41a0f1a7
0xc0100038 0xc55aa76b
0xc010003c 0xa5d4b790
0xc0100040 0x00930c6e
0xc0100044 0x5c0809d1
0xc0100048 0xa714062a
0xc010004c 0x5e68b8eb
0xc0100050 0x282cd901
0xc0100054 0x3b3ff640
0xc0102000 0xfb200631
0xc0102004 0x037ae90f
0xc0100058 0x1e602440
0xc010005c 0xfed224c3
0xc0102008 0xf6dbfb9b
0xc010200c 0xed73fe2b
0xc0100060 0xfebe9b27
0xc0100064 0x2b9eeae6
0xc0102010 0xe934ee33
0xc0102014 0xedf3f6c4
0xc0100068 0x181c18f2
0xc010006c 0xbd6fb81f
0xc0102018 0x0252f66d
0xc010201c 0x05e0fcfa
0xc0100070 0xaea1b336
0xc0100074 0x9356e9f3
0xc0102020 0xf68202da
0xc0102024 0x0054fe07
0xc0100078 0xac174a2b
0xc010007c 0x4f3aebd0
0xc0102028 0xfc0bf6fa
0xc010202c 0xfbc8f865
0xc0100080 0x4ecb4451
0xc0100084 0x22fc144a
0xc0102030 0xfb58ebf9
0xc0102034 0xf165fb1b
0xc0100088 0x2f243746
0xc010008c 0xa2fc6156
0xc0102038 0x0ab2f064
0xc010203c 0xf621f0c1
0xc0100090 0xb875091a
0xc0100094 0xf81f1e0c
0xc0102040 0xf57e0362
0xc0102044 0xe739faa4
0xc0100098 0xcf55d84a
0xc010009c 0x12ec49c8
0xc0102048 0xfb4afa6b
0xc010204c 0xfa64f767
0xc01000a0 0xf327d5a5
0xc01000a4 0x4206df17
0xc0102050 0x033ae98d
0xc0102054 0xf01ff0a5
0xc01000a8 0xb7455a21
0xc01000ac 0x43504433
0xc0102058 0x0736fc85
0xc010205c 0xecc7f48e
0xc01000b0 0xf8e206ce
0xc01000b4 0x2bc1606d
0xc0102060 0xf39b01ad
0xc0102064 0x00000000
0xc01000b8 0x6352b10f
0xc01000bc 0x1d5dbe7f
0xc0102068 0x00000000
0xc010206c 0x00000000
0xc01000c0 0xd167ed1b
0xc01000c4 0x1153dd23
0xc01000c8 0xd3dd67a1
0xc01000cc 0x1102c2b4
0xc01000d0 0xcd4a2c94
0xc01000d4 0x0c496beb
0xc01000d8 0xeecf2559
0xc01000dc 0x375a5322
0xc01000e0 0xd23cf9f4
0xc01000e4 0xdc0b05ea
0xc01000e8 0x172cbe39
0xc01000ec 0xceae6756
0xc01000f0 0x5b02aeca
0xc01000f4 0xc6e5c4a1
0xc01000f8 0x3cca633d
0xc01000fc 0x5f7053fe
0xc0100100 0xf1023f0b
0xc0100104 0x52697419
0xc0100108 0x670cce15
0xc010010c 0xcfbc05b9
0xc0100110 0x3e291224
0xc0100114 0x9210f721
0xc0100118 0x1e19d832
0xc010011c 0x0ef930ae
0xc0100120 0x523f1335
0xc0100124 0x61f5e787
0xc0100128 0x1632f80f
0xc010012c 0xd6753d9b
0xc0100130 0x6605bb4a
0xc0100134 0xaf3f4b42
0xc0100138 0x5825c2c6
0xc010013c 0xa7ac1fca
0xc0100140 0xe6eb55ce
0xc0100144 0x2eb954c0
0xc0100148 0x1e6110cd
0xc010014c 0x3ef394bd
0xc0100150 0x51de369e
0xc0100154 0xcff98a8c
0xc0100158 0xc1141eb4
0xc010015c 0x1a4db50e
0xc0100160 0x48c8a80e
0xc0100164 0x5a272caf
0xc0100168 0xe52901d4
0xc010016c 0x4c2ed30b
0xc0100170 0xb695b4d9
0xc0100174 0x29058a5a
0xc0100178 0x954bbf2a
0xc010017c 0x13f5a1df
0xc0100180 0x0ae3563b
0xc0100184 0x2e3cb9d5
0xc0100188 0x095700c6
0xc010018c 0xb153215d
0xc0100190 0x669e41e4
0xc0100194 0xcf9cbe91
0xc0100198 0x3bd23cfd
0xc010019c 0x330551ba
0xc01001a0 0xee9fad4d
0xc01001a4 0x44b8f5a3
0xc01001a8 0xe233a7fe
0xc01001ac 0x6199d3e4
0xc01001b0 0xa8cdf53f
0xc01001b4 0x9fc19942
0xc01001b8 0x3d59ea4c
0xc01001bc 0xd4babc68
0xc01001c0 0xcbf5fc3d
0xc01001c4 0x01ca912c
0xc01001c8 0x330d4e2c
0xc01001cc 0xdf16d02b
0xc01001d0 0xfd103d56
0xc01001d4 0xa025397d
0xc01001d8 0xc03de6fb
0xc01001dc 0xaf690126
0xc01001e0 0x05f7cfd2
0xc01001e4 0xd472c306
0xc01001e8 0x3f4ba466
0xc01001ec 0xacf0c6b0
0xc01001f0 0xb0286ee2
0xc01001f4 0x00000000
0xc0008000 0xfdf7fff2
0xc0008004 0xf4f10102
0xc0008008 0xfdf7fff2
0xc000800c 0xf4f10102
0xc0008010 0xfdf7fff2
0xc0008014 0xf4f10102
0xc0008018 0xfdf7fff2
0xc000801c 0xf4f10102
0xc0008020 0xfdf6fef3
0xc0008024 0xf3f10002
0xc0008028 0xfcf7fff2
0xc000802c 0xf3f30001
0xc0008030 0xfef6fdf3
0xc0008034 0xf5f3fe04
0xc0008038 0xfdf800f4
0xc000803c 0xf6f00202
0xc0008040 0xfef9fff3
0xc0008044 0xf6f20004
0xc0008048 0xfff9fff1
0xc000804c 0xf7f00304
0xc0008050 0xf9fa00f5
0xc0008054 0xf6f50004
0xc0008058 0xfff700f4
0xc000805c 0xf6f30003
0xc0008060 0xfcf5fef5
0xc0008064 0xf3f1ff02
0xc0008068 0xfcf901f3
0xc000806c 0xf8f4ff02
0xc0008070 0xfdf7fef2
0xc0008074 0xf6efff01
0xc0008078 0xfdf901f5
0xc000807c 0xf6f10201
0xc0008080 0xfef9fef3
0xc0008084 0xf5f20003
0xc0008088 0xfdf6fef3
0xc000808c 0xf5ef0102
0xc0008090 0xfdf801f3
0xc0008094 0xf5f10001
0xc0008098 0xfdf8fff4
0xc000809c 0xf4f10102
0xc00080a0 0xfef7fff3
0xc00080a4 0xf5f10103
0xc00080a8 0xfdf700f3
0xc00080ac 0xf5f10103
0xc00080b0 0xfdf700f3
0xc00080b4 0xf5f10102
0xc00080b8 0xfdf7fff2
0xc00080bc 0xf5f10002
0xc00080c0 0xfdf7fff2
0xc00080c4 0xf4f10102
0xc00080c8 0xfdf7fff2
0xc00080cc 0xf4f10102
0xc0103000 0xff8afec3
0xc0103004 0x01180071
0xc00080d0 0xfdf7fff2
0xc00080d4 0xf4f10102
0xc0103008 0x0012005a
0xc010300c 0x00600024
0xc00080d8 0xfdf7fff2
0xc00080dc 0xf4f10102
0xc0103010 0x0050ff28
0xc0103014 0x002a0030
0xc00080e0 0xfcf9fff3
0xc00080e4 0xf5f3ff03
0xc0103018 0x000effca
0xc010301c 0xffb80056
0xc00080e8 0xfef9fdf5
0xc00080ec 0xf6f20003
0xc0103020 0x0023fffd
0xc0103024 0x0060ff8f
0xc00080f0 0xfbf9fff3
0xc00080f4 0xf5f00203
0xc0103028 0x000a0061
0xc010302c 0x00170045
0xc00080f8 0xfaf900f6
0xc00080fc 0xf4f20402
0xc0103030 0x002cff9b
0xc0103034 0xffb00102
0xc0008100 0xfef900f2
0xc0008104 0xf5f2ff03
0xc0103038 0xffd70092
0xc010303c 0x0102008c
0xc0008108 0xfaf6fff5
0xc000810c 0xf3f20001
0xc0103040 0x009f003f
0xc0103044 0x004eff71
0xc0008110 0xf311fdfc
0xc0008114 0xf807f809
0xc0103048 0xffac0003
0xc010304c 0x0091ff73
0xc0008118 0x0823e7ff
0xc000811c 0x031ce729
0xc0103050 0x00f00004
0xc0103054 0xffa2ffdb
0xc0008120 0x0821ebf5
0xc0008124 0x0b0e0042
0xc0103058 0x0071ffb9
0xc010305c 0x007bfff2
0xc0008128 0xf82dfefa
0xc000812c 0x1d200f52
0xc0103060 0x005affad
0xc0103064 0xff820049
0xc0008130 0xf337f5e4
0xc0008134 0x29220855
0xc0103068 0x0070fff5
0xc010306c 0xfffaffce
0xc0008138 0xf724f8dd
0xc000813c 0x29140d50
0xc0103070 0x00fe006a
0xc0103074 0xff27ff65
0xc0008140 0xef1208db
0xc0008144 0x23011737
0xc0103078 0xff3f0021
0xc010307c 0x0059007c
0xc0008148 0xe80d09e0
0xc000814c 0x17fe101c
0xc0103080 0x00cb006d
0xc0103084 0x00c7fffe
0xc0008150 0xf508fde0
0xc0008154 0x0bfbfe0d
0xc0103088 0x008cffb5
0xc010308c 0x00c5ffe0
0xc0008158 0xfdfbf9eb
0xc000815c 0xfbf2fd05
0xc0103090 0xffda001e
0xc0103094 0x0037015e
0xc0008160 0xfdf7fff2
0xc0008164 0xf5f00203
0xc0103098 0x00a9fffe
0xc010309c 0xff8e0042
0xc0008168 0xfdf800f3
0xc000816c 0xf5f10103
0xc01030a0 0x00480091
0xc01030a4 0xff690039
0xc0008170 0xfef7fff2
0xc0008174 0xf5f10003
0xc01030a8 0x00deffaa
0xc01030ac 0xffc6ffa2
0xc0008178 0xfdf7fff2
0xc000817c 0xf5f10002
0xc01030b0 0x0045ffbd
0xc01030b4 0x00800052
0xc0008180 0xfdf7fff2
0xc0008184 0xf4f10102
0xc01030b8 0xff45ff99
0xc01030bc 0xff01ffc5
0xc0008188 0xfdf7fff2
0xc000818c 0xf4f10102
0xc01030c0 0xffba003a
0xc01030c4 0x003b00be
0xc0008190 0xfdf7fff2
0xc0008194 0xf4f10102
0xc01030c8 0x0019ffe5
0xc01030cc 0x00d0ffdd
0xc0008198 0xfdf7fff2
0xc000819c 0xf4f10102
0xc01030d0 0xffa50163
0xc01030d4 0xffe5fff5
0xc00081a0 0xfcf8fff3
0xc00081a4 0xf4f00200
0xc01030d8 0x004f0058
0xc01030dc 0x00210039
0xc00081a8 0xfaf6fef4
0xc00081ac 0xf2f30001
0xc01030e0 0x0013ffa3
0xc01030e4 0xffa5ffcd
0xc00081b0 0xfef801f4
0xc00081b4 0xf2f40103
0xc01030e8 0x0082ffda
0xc01030ec 0x000fffdc
0xc00081b8 0xfcf6fdf7
0xc00081bc 0xf6f4fd04
0xc01030f0 0xffa4ffbf
0xc01030f4 0x001f003d
0xc00081c0 0xf515fbfc
0xc00081c4 0xfc0af50e
0xc01030f8 0xffb9003b
0xc01030fc 0x00c7ffae
0xc00081c8 0x0925e5fd
0xc00081cc 0x041ce92f
0xc0103100 0x0074ffdc
0xc0103104 0x00170038
0xc00081d0 0xf932e105
0xc00081d4 0x120a1437
0xc0103108 0xff9d0044
0xc010310c 0xfff7004c
0xc00081d8 0xd764f610
0xc00081dc 0x1e252646
0xc0103110 0x00c800d3
0xc0103114 0x0004000d
0xc00081e0 0xe367f80a
0xc00081e4 0x161c3b5b
0xc0103118 0xffeeffdb
0xc010311c 0xff1fffab
0xc00081e8 0xf64c161a
0xc00081ec 0x180c4760
0xc0103120 0x00c5ffce
0xc0103124 0xfff0ffb9
0xc00081f0 0xda433126
0xc00081f4 0x2811463f
0xc0103128 0x0049ffdf
0xc010312c 0xff6100b3
0xc00081f8 0xe32e341c
0xc00081fc 0x170d2e2f
0xc0103130 0xffa2ff85
0xc0103134 0xff520046
0xc0008200 0xfc0f2d17
0xc0008204 0x0b081626
0xc0103138 0x006d00fa
0xc010313c 0x004b0052
0xc0008208 0xfdf72211
0xc000820c 0x0cfe0610
0xc0103140 0xff48fff9
0xc0103144 0x00590016
0xc0008210 0xf0f81704
0xc0008214 0x0bfdfefd
0xc0103148 0xff98002e
0xc010314c 0x0028ff7e
0xc0008218 0xf3fd06f8
0xc000821c 0xfcf9fefe
0xc0103150 0x0041009a
0xc0103154 0x000600df
0xc0008220 0xfff8fef2
0xc0008224 0xf5f10004
0xc0103158 0xff91006d
0xc010315c 0x002effc4
0xc0008228 0xfef600f3
0xc000822c 0xf5ef0103
0xc0103160 0x0052005f
0xc0103164 0xff2f00b5
0xc0008230 0xfbf801f3
0xc0008234 0xf6f20102
0xc0103168 0x0009ff48
0xc010316c 0x0034ff90
0xc0008238 0xfef8fff1
0xc000823c 0xf5f10002
0xc0103170 0x00a4006d
0xc0103174 0xff5c0062
0xc0008240 0xfdf7fff2
0xc0008244 0xf4f10102
0xc0103178 0x015b0019
0xc010317c 0xffea00da
0xc0008248 0xfdf7fff2
0xc000824c 0xf4f10102
0xc0103180 0x00760029
0xc0103184 0x00bc0072
0xc0008250 0xfdf7fff2
0xc0008254 0xf4f10102
0xc0103188 0xffedffbb
0xc010318c 0x005aff92
0xc0008258 0xfdf7fff2
0xc000825c 0xf4f10102
0xc0103190 0x0054ff77
0xc0103194 0x00da0088
0xc0008260 0xfcf5fef3
0xc0008264 0xf2f20002
0xc0103198 0x00bf0010
0xc010319c 0x000effe2
0xc0008268 0xfcf800f3
0xc000826c 0xf5f5fe03
0xc01031a0 0xff0f00dc
0xc01031a4 0x00acffe0
0xc0008270 0xf10ef8fc
0xc0008274 0xfb03f809
0xc01031a8 0x0002ff6d
0xc01031ac 0xffa00019
0xc0008278 0x062ce503
0xc000827c 0x001ce925
0xc01031b0 0xff9f00be
0xc01031b4 0x001fff7b
0xc0008280 0xf935dd04
0xc0008284 0x12091238
0xc01031b8 0xffa2009a
0xc01031bc 0x00c4ffa8
0xc0008288 0xde59fc14
0xc000828c 0x171c2e43
0xc01031c0 0x0038fff2
0xc01031c4 0xffa7ffc2
0xc0008290 0xd039f514
0xc0008294 0xf91e3f4c
0xc01031c8 0x004400f6
0xc01031cc 0xff96ffbd
0xc0008298 0xda291a28
0xc000829c 0xeb2f3644
0xc01031d0 0xfff7ffdf
0xc01031d4 0xfffcff21
0xc00082a0 0xce190939
0xc00082a4 0xf4281021
0xc01031d8 0x001efff5
0xc01031dc 0x00ee006a
0xc00082a8 0xef0e0a3e
0xc00082ac 0xe5100710
0xc01031e0 0x00290014
0xc01031e4 0x011affef
0xc00082b0 0x04000741
0xc00082b4 0xec1afb15
0xc01031e8 0xfffbff7d
0xc01031ec 0x00e40143
0xc00082b8 0x0505042a
0xc00082bc 0x090cf206
0xc01031f0 0x001dfff4
0xc01031f4 0x0063ff65
0xc00082c0 0x060ffb17
0xc00082c4 0x17f2f9fa
0xc01031f8 0xff96ffd7
0xc01031fc 0x00f40038
0xc00082c8 0x0914fa08
0xc00082cc 0x0af104fe
0xc0103200 0xffe6005c
0xc0103204 0x00b8ffc7
0xc00082d0 0x0b09f9f9
0xc00082d4 0x01fd010e
0xc0103208 0xffe40021
0xc010320c 0x001aff6a
0xc00082d8 0x01fbfdf4
0xc00082dc 0xfcf80008
0xc0103210 0xfff50046
0xc0103214 0xffaf004a
0xc00082e0 0xfbf700f4
0xc00082e4 0xf6f10101
0xc0103218 0x0041ff07
0xc010321c 0x0084001e
0xc00082e8 0xfff900f3
0xc00082ec 0xf4f00203
0xc0103220 0xffd7fff3
0xc0103224 0x00b0ffd6
0xc00082f0 0xfff6fff2
0xc00082f4 0xf6f00003
0xc0103228 0xffd0ffde
0xc010322c 0x0047002a
0xc00082f8 0xfdf701f2
0xc00082fc 0xf6f10001
0xc0103230 0xffa50002
0xc0103234 0x002e0101
0xc0008300 0xfdf7fff2
0xc0008304 0xf4f10102
0xc0103238 0x004b007a
0xc010323c 0xff8e004c
0xc0008308 0xfdf7fff2
0xc000830c 0xf4f10102
0xc0103240 0xffc00043
0xc0103244 0xffa8ff70
0xc0008310 0xfdf7fff2
0xc0008314 0xf4f10102
0xc0103248 0xffa7ff66
0xc010324c 0x0091ff57
0xc0008318 0xfdf7fff2
0xc000831c 0xf4f10102
0xc0103250 0x00750039
0xc0103254 0xffcb0011
0xc0008320 0xfbf7fff3
0xc0008324 0xf6f3ff02
0xc0103258 0xff5f0027
0xc010325c 0x001fffd7
0xc0008328 0xf10dfbfb
0xc000832c 0xf906f908
0xc0103260 0xff98ff43
0xc0103264 0xffcc006b
0xc0008330 0xfb3ada12
0xc0008334 0x0219f71a
0xc0103268 0x009aff99
0xc010326c 0x00240037
0xc0008338 0xed3ce107
0xc000833c 0x09071c31
0xc0103270 0x00230014
0xc0103274 0x00400054
0xc0008340 0xcf2b0427
0xc0008344 0xdf19483e
0xc0103278 0xffd4fffe
0xc010327c 0xfff5ffe0
0xc0008348 0xe0231823
0xc000834c 0xe5302b45
0xc0103280 0x0036ff52
0xc0103284 0xfeffff6f
0xc0008350 0xce030e33
0xc0008354 0x063bef20
0xc0103288 0xffbeff9d
0xc010328c 0xfff1ff6a
0xc0008358 0xe5de0d5c
0xc000835c 0x182be7f9
0xc0103290 0xff89ff30
0xc0103294 0x0064fedb
0xc0008360 0xdbffeb6b
0xc0008364 0x1c28c8d6
0xc0103298 0x0011ffbc
0xc010329c 0xffe2ff7e
0xc0008368 0xca03ca3f
0xc000836c 0x31f7cab9
0xc01032a0 0xff0dfff3
0xc01032a4 0x003d0068
0xc0008370 0xe917e135
0xc0008374 0x20e4c6af
0xc01032a8 0x0020fffb
0xc01032ac 0xffc0003c
0xc0008378 0xf214e423
0xc000837c 0x0edfd0b9
0xc01032b0 0xffa90095
0xc01032b4 0xffbeffe1
0xc0008380 0xf615e703
0xc0008384 0xf3dcd4c8
0xc01032b8 0xffd2ffe4
0xc01032bc 0xff6efff4
0xc0008388 0xf808f8ea
0xc000838c 0xf0dcdfd8
0xc01032c0 0x0015ff98
0xc01032c4 0xff6f006e
0xc0008390 0x04030ded
0xc0008394 0xefebe9eb
0xc01032c8 0x006300cf
0xc01032cc 0xffb4fffe
0xc0008398 0x03fb07f4
0xc000839c 0xeef2f9fc
0xc01032d0 0x002200ea
0xc01032d4 0xffc8ffd0
0xc00083a0 0xfef8fff4
0xc00083a4 0xf4f3ff03
0xc01032d8 0x008600cb
0xc01032dc 0xff9d0044
0xc00083a8 0xfcf6fef2
0xc00083ac 0xf7ef0000
0xc01032e0 0x0087002a
0xc01032e4 0x000fffb3
0xc00083b0 0xfef801f3
0xc00083b4 0xf4f00001
0xc01032e8 0xffe40024
0xc01032ec 0xffe8006a
0xc00083b8 0xfef8fff2
0xc00083bc 0xf6f20003
0xc01032f0 0xff7a0077
0xc01032f4 0x001eff96
0xc00083c0 0xfdf7fff2
0xc00083c4 0xf4f10102
0xc01032f8 0xffb50016
0xc01032fc 0x0083003e
0xc00083c8 0xfdf7fff2
0xc00083cc 0xf4f10102
0xc0103300 0xffaeffde
0xc0103304 0x0082ffb5
0xc00083d0 0xfdf7fff2
0xc00083d4 0xf4f10102
0xc0103308 0xffc700e4
0xc010330c 0xff8f0018
0xc00083d8 0xfdf7fff2
0xc00083dc 0xf4f10102
0xc0103310 0x001dff7d
0xc0103314 0xff99fffe
0xc00083e0 0xfdf6fff2
0xc00083e4 0xf3f20100
0xc0103318 0xffec0014
0xc010331c 0xffb1ffcc
0xc00083e8 0xe524f00c
0xc00083ec 0xfe0308fd
0xc0103320 0xff82ff4f
0xc0103324 0xff4bffb0
0xc00083f0 0xd83ecd25
0xc00083f4 0xe934fb1a
0xc0103328 0xff49ffe1
0xc010332c 0x01090007
0xc00083f8 0xf623ed16
0xc00083fc 0xc6311552
0xc0103330 0x00d9006f
0xc0103334 0xff7a005c
0xc0008400 0xdfed1138
0xc0008404 0xfc2c174d
0xc0103338 0x005effa3
0xc010333c 0x0082ffec
0xc0008408 0xd3f81e52
0xc000840c 0x3b31f101
0xc0103340 0xffe9003b
0xc0103344 0xffc00029
0xc0008410 0xd704ed3e
0xc0008414 0x3712d2ba
0xc0103348 0xff390063
0xc010334c 0x0036ffe4
0xc0008418 0xbfe6d834
0xc000841c 0x36fdd18e
0xc0103350 0xfff60034
0xc0103354 0xff950122
0xc0008420 0xe4e10937
0xc0008424 0x2203c380
0xc0103358 0xff1dffc0
0xc010335c 0x0026002a
0xc0008428 0xf7c30b16
0xc000842c 0xf6e3b780
0xc0103360 0xffdbff38
0xc0103364 0xfff300e7
0xc0008430 0x18c420ec
0xc0008434 0xfbdbbb8f
0xc0103368 0xff6fffa4
0xc010336c 0x00860030
0xc0008438 0x24cf32e3
0xc000843c 0x04e0c3b2
0xc0103370 0x004e0052
0xc0103374 0x000bff84
0xc0008440 0x30e035e7
0xc0008444 0x06e5d5da
0xc0103378 0xffbfffec
0xc010337c 0x011affe3
0xc0008448 0x2fe91ddd
0xc000844c 0xfae1e8fb
0xc0103380 0x002a00ba
0xc0103384 0x006c008a
0xc0008450 0x1cf50edd
0xc0008454 0x00eef70c
0xc0103388 0x00b20018
0xc010338c 0x00d9ff62
0xc0008458 0x04f905ed
0xc000845c 0xfff5fd05
0xc0103390 0xfffeffc4
0xc0103394 0xff730085
0xc0008460 0xfff601f5
0xc0008464 0xf6f00000
0xc0103398 0xffeaffae
0xc010339c 0x00bfffdc
0xc0008468 0xfdf8fef4
0xc000846c 0xf3f0ff01
0xc01033a0 0x006fff9f
0xc01033a4 0x006900c3
0xc0008470 0xfef7fef0
0xc0008474 0xf6f00002
0xc01033a8 0x001cfff4
0xc01033ac 0xffc9ff5a
0xc0008478 0xfef701f2
0xc000847c 0xf4f1ff01
0xc01033b0 0x005cffa1
0xc01033b4 0x004700a3
0xc0008480 0xfdf7fff2
0xc0008484 0xf4f10102
0xc01033b8 0x00500022
0xc01033bc 0xff940049
0xc0008488 0xfdf7fff2
0xc000848c 0xf4f10102
0xc01033c0 0x00c70093
0xc01033c4 0xff96008d
0xc0008490 0xfdf7fff2
0xc0008494 0xf4f10102
0xc01033c8 0x00480057
0xc01033cc 0xff060071
0xc0008498 0xfdf7fff2
0xc000849c 0xf4f10102
0xc01033d0 0xffc8ffe9
0xc01033d4 0x00cc0180
0xc00084a0 0xfdf7fff3
0xc00084a4 0xf5f10102
0xc01033d8 0x000400a9
0xc01033dc 0xffe9ff85
0xc00084a8 0xd00edd19
0xc00084ac 0xe21604fa
0xc01033e0 0x004dfe73
0xc01033e4 0x001e00c7
0xc00084b0 0xc84ad42a
0xc00084b4 0xec6ad81e
0xc01033e8 0x00000000
0xc01033ec 0x00000000
0xc00084b8 0xf2fce634
0xc00084bc 0x0927013e
0xc00084c0 0xe6f31e67
0xc00084c4 0x11f426f3
0xc00084c8 0xbaf2053f
0xc00084cc 0x6014e7ad
0xc00084d0 0xe0ee1019
0xc00084d4 0x2e01bb80
0xc00084d8 0x02c613f5
0xc00084dc 0xeadcbd86
0xc00084e0 0x25c136da
0xc00084e4 0x01e9c5b0
0xc00084e8 0x32d439ed
0xc00084ec 0x03eed3d1
0xc00084f0 0x29df20e4
0xc00084f4 0x03e2e7f0
0xc00084f8 0x26ed16de
0xc00084fc 0xfde8f406
0xc0008500 0x16f60be5
0xc0008504 0xfef2f90b
0xc0008508 0xfff803f1
0xc000850c 0xfdf4fe02
0xc0008510 0xfef901f5
0xc0008514 0xf5f20002
0xc0008518 0x00f7fdf3
0xc000851c 0xf5f2fe03
0xc0008520 0xfdf7fff1
0xc0008524 0xf7f10003
0xc0008528 0xfdf702f3
0xc000852c 0xf7f10102
0xc0008530 0xfef700f0
0xc0008534 0xf5f00002
0xc0008538 0xfff8fff0
0xc000853c 0xf6f10003
0xc0008540 0xfdf7fff2
0xc0008544 0xf4f10102
0xc0008548 0xfdf7fff2
0xc000854c 0xf4f10102
0xc0008550 0xfdf7fff2
0xc0008554 0xf4f10102
0xc0008558 0xfdf7fff2
0xc000855c 0xf4f10102
0xc0008560 0xfdf6fff2
0xc0008564 0xf4f10102
0xc0008568 0xbb12df23
0xc000856c 0xf930f2f4
0xc0008570 0xc41bde3d
0xc0008574 0xf96fe2f7
0xc0008578 0xe9f3de42
0xc000857c 0xeb1ff004
0xc0008580 0xe9d31750
0xc0008584 0x1dcb26c4
0xc0008588 0xf9f64412
0xc000858c 0x36f6d0a6
0xc0008590 0x23f536d9
0xc0008594 0x3700b9d1
0xc0008598 0x35e92ae1
0xc000859c 0xfee3dfef
0xc00085a0 0x23ee11da
0xc00085a4 0xfde7f409
0xc00085a8 0x0df906eb
0xc00085ac 0xfff8fb0a
0xc00085b0 0xfbfbfff3
0xc00085b4 0xf5f6fc01
0xc00085b8 0xfff6fbf4
0xc00085bc 0xf8f0fc03
0xc00085c0 0xfef901f6
0xc00085c4 0xf6f00202
0xc00085c8 0xfbfbfff3
0xc00085cc 0xf7f50003
0xc00085d0 0xfcf8fdf1
0xc00085d4 0xf8f00001
0xc00085d8 0xfcfb01f5
0xc00085dc 0xf5f00000
0xc00085e0 0xfdf800f3
0xc00085e4 0xf4f00203
0xc00085e8 0x00f701f3
0xc00085ec 0xf4f00004
0xc00085f0 0xfdf701f3
0xc00085f4 0xf6f10002
0xc00085f8 0xfdf700f3
0xc00085fc 0xf5f10002
0xc0008600 0xfdf7fff2
0xc0008604 0xf4f10102
0xc0008608 0xfdf7fff2
0xc000860c 0xf4f10102
0xc0008610 0xfdf7fff2
0xc0008614 0xf4f10102
0xc0008618 0xfdf7fff2
0xc000861c 0xf4f10102
0xc0008620 0xfcf9fff3
0xc0008624 0xf5f3ff03
0xc0008628 0xbafee41b
0xc000862c 0xed35fadb
0xc0008630 0xb804e141
0xc0008634 0x017fd6eb
0xc0008638 0xf9f4f356
0xc000863c 0x0111f1f6
0xc0008640 0x01e8153e
0xc0008644 0x089d18dc
0xc0008648 0x271e49ec
0xc000864c 0x43ecdeed
0xc0008650 0x14321fd8
0xc0008654 0x2620c60d
0xc0008658 0x1727f1f4
0xc000865c 0x0721e22d
0xc0008660 0x061ae8f1
0xc0008664 0x0a0cff42
0xc0008668 0xfc1d04f8
0xc000866c 0x1c161347
0xc0008670 0xee0d06dd
0xc0008674 0x25fb1d34
0xc0008678 0xe5150be4
0xc000867c 0x15020f18
0xc0008680 0xf605fade
0xc0008684 0x0cf9fc0c
0xc0008688 0x00f702f0
0xc000868c 0xf9f0fe02
0xc0008690 0xfaf601f5
0xc0008694 0xf4f3ff00
0xc0008698 0xfef8fff1
0xc000869c 0xf5f3ff02
0xc00086a0 0xfff6fef3
0xc00086a4 0xf4f0fe02
0xc00086a8 0xfef800f3
0xc00086ac 0xf6ef0101
0xc00086b0 0xfef8fff3
0xc00086b4 0xf5f10103
0xc00086b8 0xfef7fff1
0xc00086bc 0xf5f10003
0xc00086c0 0xfdf7fff2
0xc00086c4 0xf4f10102
0xc00086c8 0xfdf7fff2
0xc00086cc 0xf4f10102
0xc00086d0 0xfdf7fff2
0xc00086d4 0xf4f10102
0xc00086d8 0xfdf7fff2
0xc00086dc 0xf4f10102
0xc00086e0 0xfcf8fef3
0xc00086e4 0xf4f00200
0xc00086e8 0xbbf7e818
0xc00086ec 0xec2dfed7
0xc00086f0 0xb2fde842
0xc00086f4 0xfd7adae3
0xc00086f8 0x04f8ef5b
0xc00086fc 0xfc14e3fb
0xc0008700 0xfe01073c
0xc0008704 0x04a50ee7
0xc0008708 0x304d2cf3
0xc000870c 0x4619cb1d
0xc0008710 0x1b5f01e5
0xc0008714 0x452de53e
0xc0008718 0xe056fa0e
0xc000871c 0x201e2b46
0xc0008720 0xd86c000c
0xc0008724 0x141a3e55
0xc0008728 0xfb561116
0xc000872c 0x182c2870
0xc0008730 0x0720210c
0xc0008734 0x221b1f65
0xc0008738 0xeb023706
0xc000873c 0x31062839
0xc0008740 0xd81321f4
0xc0008744 0x2b11040d
0xc0008748 0xf907fbe0
0xc000874c 0x0dfaf709
0xc0008750 0xfef8fff3
0xc0008754 0xfaf30006
0xc0008758 0xfbf601f5
0xc000875c 0xf9f20101
0xc0008760 0xfdfafef3
0xc0008764 0xf6f1ff01
0xc0008768 0xfcf7fdf2
0xc000876c 0xf5ef0001
0xc0008770 0xfef700f2
0xc0008774 0xf4f0ff01
0xc0008778 0xfdf700f2
0xc000877c 0xf4f10001
0xc0008780 0xfdf7fff2
0xc0008784 0xf4f10102
0xc0008788 0xfdf7fff2
0xc000878c 0xf4f10102
0xc0008790 0xfdf7fff2
0xc0008794 0xf4f10102
0xc0008798 0xfdf7fff2
0xc000879c 0xf4f10102
0xc00087a0 0xfcf5fef3
0xc00087a4 0xf2f20002
0xc00087a8 0xc9deef0d
0xc00087ac 0xe621fdd6
0xc00087b0 0xa6e9f13c
0xc00087b4 0xfe66e1cc
0xc00087b8 0xf41be665
0xc00087bc 0x0731c5ec
0xc00087c0 0x1327d649
0xc00087c4 0x00a909ee
0xc00087c8 0x21582904
0xc00087cc 0x3df40b29
0xc00087d0 0xdf512b07
0xc00087d4 0x16322836
0xc00087d8 0xe0271b25
0xc00087dc 0xdd39213b
0xc00087e0 0xd122f43e
0xc00087e4 0xf22c031d
0xc00087e8 0xfa5efc57
0xc00087ec 0x022afe25
0xc00087f0 0x163c0233
0xc00087f4 0x1f032051
0xc00087f8 0x0a1c3931
0xc00087fc 0x1efa4847
0xc0008800 0xf11f250b
0xc0008804 0x3e200924
0xc0008808 0xe50a02e7
0xc000880c 0x1f02f1fe
0xc0008810 0xfefa04f5
0xc0008814 0xf2f200ff
0xc0008818 0x00f6fff5
0xc000881c 0xf4f4ff04
0xc0008820 0xfcf502f3
0xc0008824 0xf8f10101
0xc0008828 0xfef602f3
0xc000882c 0xf5f00001
0xc0008830 0x00f800f0
0xc0008834 0xf6f00003
0xc0008838 0xfef7fff2
0xc000883c 0xf6f10003
0xc0008840 0xfdf7fff2
0xc0008844 0xf4f10102
0xc0008848 0xfdf7fff2
0xc000884c 0xf4f10102
0xc0008850 0xfdf7fff2
0xc0008854 0xf4f10102
0xc0008858 0xfdf7fff2
0xc000885c 0xf4f10102
0xc0008860 0xfbf8fff3
0xc0008864 0xf6f3ff02
0xc0008868 0xd8d7fbff
0xc000886c 0xef1cf4e0
0xc0008870 0xbbbcf133
0xc0008874 0xf943ecbd
0xc0008878 0xd100f258
0xc000887c 0x090be1ab
0xc0008880 0xd605d04b
0xc0008884 0xc8b003a3
0xc0008888 0x33142b08
0xc000888c 0xc3fde90b
0xc0008890 0x15fd262f
0xc0008894 0x0448cc26
0xc0008898 0xebdb1154
0xc000889c 0x261fe0ec
0xc00088a0 0xad2ac97b
0xc00088a4 0x1c32d4c3
0xc00088a8 0xc5539b5a
0xc00088ac 0x042dd6e1
0xc00088b0 0x104dd220
0xc00088b4 0xe2ede615
0xc00088b8 0x0c151a22
0xc00088bc 0x11c52517
0xc00088c0 0x05343f13
0xc00088c4 0x3614f403
0xc00088c8 0xf51504e7
0xc00088cc 0x200fe806
0xc00088d0 0xfef8fef2
0xc00088d4 0xfaf10103
0xc00088d8 0xfdfb01f3
0xc00088dc 0xf6f10001
0xc00088e0 0xfff800f4
0xc00088e4 0xf4f10204
0xc00088e8 0xfff7fff3
0xc00088ec 0xf5f00003
0xc00088f0 0xfcf700f2
0xc00088f4 0xf6f10001
0xc00088f8 0xfef700f2
0xc00088fc 0xf4f10002
0xc0008900 0xfdf7fff2
0xc0008904 0xf4f10102
0xc0008908 0xfdf7fff2
0xc000890c 0xf4f10102
0xc0008910 0xfdf7fff2
0xc0008914 0xf4f10102
0xc0008918 0xfdf7fff2
0xc000891c 0xf4f10102
0xc0008920 0xfdf6fff2
0xc0008924 0xf3f10200
0xc0008928 0xeae706f2
0xc000892c 0xf808fce4
0xc0008930 0xc6acf81b
0xc0008934 0xfd3ae3ce
0xc0008938 0xe5b9ff40
0xc000893c 0xeb2ccec4
0xc0008940 0xd5ced125
0xc0008944 0xdff2acaf
0xc0008948 0x14e203fc
0xc000894c 0x21ddbec9
0xc0008950 0x110aff34
0xc0008954 0x1bfccbb3
0xc0008958 0xcde7de28
0xc000895c 0x20fbe19b
0xc0008960 0xaff6e34f
0xc0008964 0x0d37ba80
0xc0008968 0xc906e74c
0xc000896c 0xfb4a94a5
0xc0008970 0x37040c29
0xc0008974 0xfae0cbf4
0xc0008978 0x23091f1d
0xc000897c 0xff9b12f9
0xc0008980 0x13363aea
0xc0008984 0x5004e800
0xc0008988 0x061f1ae7
0xc000898c 0x1f13dafe
0xc0008990 0xfef8fff7
0xc0008994 0xf1f2fd02
0xc0008998 0xfcf8ffef
0xc000899c 0xf7f2ff02
0xc00089a0 0xfdf600f3
0xc00089a4 0xf6f0ff01
0xc00089a8 0xfdf901f3
0xc00089ac 0xf6f00000
0xc00089b0 0xfef7fef1
0xc00089b4 0xf5f10003
0xc00089b8 0xfef700f2
0xc00089bc 0xf5f10002
0xc00089c0 0xfdf7fff2
0xc00089c4 0xf4f10102
0xc00089c8 0xfdf7fff2
0xc00089cc 0xf4f10102
0xc00089d0 0xfdf7fff2
0xc00089d4 0xf4f10102
0xc00089d8 0xfdf7fff2
0xc00089dc 0xf4f10102
0xc00089e0 0xfdf6fff2
0xc00089e4 0xf4f10002
0xc00089e8 0xfaeb03ee
0xc00089ec 0xecf307f0
0xc00089f0 0xdadb08f9
0xc00089f4 0x051beeda
0xc00089f8 0xe2c4142c
0xc00089fc 0x3521e0d4
0xc0008a00 0xeac90e38
0xc0008a04 0x05f7d99a
0xc0008a08 0xebb0ecf9
0xc0008a0c 0xfed4d39e
0xc0008a10 0x02e417fa
0xc0008a14 0x02f0c48b
0xc0008a18 0x04bb20e8
0xc0008a1c 0xf3d8c89a
0xc0008a20 0xf5e22613
0xc0008a24 0xf82cc3a9
0xc0008a28 0xe8ef042f
0xc0008a2c 0x0b6ebedc
0xc0008a30 0x28f3003d
0xc0008a34 0x0a07dd0c
0xc0008a38 0x16f1172f
0xc0008a3c 0x0f971bea
0xc0008a40 0x202344e1
0xc0008a44 0x3df0e1f6
0xc0008a48 0x1d2320d5
0xc0008a4c 0x2a17d40a
0xc0008a50 0xfef903f5
0xc0008a54 0xf9f30001
0xc0008a58 0xfef601f5
0xc0008a5c 0xf6f10102
0xc0008a60 0x00f9fff3
0xc0008a64 0xf5f0ff03
0xc0008a68 0xfcf6fff1
0xc0008a6c 0xf7f00101
0xc0008a70 0xfef801f2
0xc0008a74 0xf4f1ff01
0xc0008a78 0xfdf7fff1
0xc0008a7c 0xf5f10002
0xc0008a80 0xfdf7fff2
0xc0008a84 0xf4f10102
0xc0008a88 0xfdf7fff2
0xc0008a8c 0xf4f10102
0xc0008a90 0xfdf7fff2
0xc0008a94 0xf4f10102
0xc0008a98 0xfdf7fff2
0xc0008a9c 0xf4f10102
0xc0008aa0 0xfdf7fff2
0xc0008aa4 0xf5f10002
0xc0008aa8 0xfbf8fdf5
0xc0008aac 0xf4f5ff03
0xc0008ab0 0xfde603eb
0xc0008ab4 0xe7f906eb
0xc0008ab8 0xebcd06ef
0xc0008abc 0xf406fbde
0xc0008ac0 0xf6c62208
0xc0008ac4 0x060bf8bf
0xc0008ac8 0x09c219fd
0xc0008acc 0xfcebdfd1
0xc0008ad0 0x2edd28e9
0xc0008ad4 0x0ae2e9eb
0xc0008ad8 0x2be713d7
0xc0008adc 0xf6deed06
0xc0008ae0 0xd403f507
0xc0008ae4 0xff39f4e9
0xc0008ae8 0xba07e140
0xc0008aec 0x057fd3ed
0xc0008af0 0x01fbee56
0xc0008af4 0x070dea05
0xc0008af8 0x04f3133b
0xc0008afc 0x029720e4
0xc0008b00 0x22203fde
0xc0008b04 0x40ede2fd
0xc0008b08 0x172621d7
0xc0008b0c 0x2a19d307
0xc0008b10 0xfcf6fef1
0xc0008b14 0xf4f101ff
0xc0008b18 0xfef7fff4
0xc0008b1c 0xf5f1fe00
0xc0008b20 0xfdf801f4
0xc0008b24 0xf6f001ff
0xc0008b28 0xfff700f2
0xc0008b2c 0xf3ef0002
0xc0008b30 0x00f700f1
0xc0008b34 0xf6f10004
0xc0008b38 0xfdf700f2
0xc0008b3c 0xf5f10002
0xc0008b40 0xfdf7fff2
0xc0008b44 0xf4f10102
0xc0008b48 0xfdf7fff2
0xc0008b4c 0xf4f10102
0xc0008b50 0xfdf7fff2
0xc0008b54 0xf4f10102
0xc0008b58 0xfdf7fff2
0xc0008b5c 0xf4f10102
0xc0008b60 0xfdf7fff2
0xc0008b64 0xf4f10102
0xc0008b68 0xfafafef5
0xc0008b6c 0xf7f20100
0xc0008b70 0xfafa00f6
0xc0008b74 0xf6f30102
0xc0008b78 0xfffafef6
0xc0008b7c 0xf0f10204
0xc0008b80 0xfdf4fff3
0xc0008b84 0xf8f00205
0xc0008b88 0xfbfa05f6
0xc0008b8c 0xf6f6ff01
0xc0008b90 0xfef6fef1
0xc0008b94 0xf5f00102
0xc0008b98 0xf20dfcf9
0xc0008b9c 0xfa04f909
0xc0008ba0 0xce12d81e
0xc0008ba4 0xf645eff3
0xc0008ba8 0xb9fbe138
0xc0008bac 0x096fea00
0xc0008bb0 0xef0b075c
0xc0008bb4 0x0e1efd0d
0xc0008bb8 0x03f60b28
0xc0008bbc 0x109918e7
0xc0008bc0 0x222041e3
0xc0008bc4 0x3ceedff8
0xc0008bc8 0x1d2523db
0xc0008bcc 0x2d1cd30a
0xc0008bd0 0xfcf3fff2
0xc0008bd4 0xf7ee0002
0xc0008bd8 0xfefa01f4
0xc0008bdc 0xf6f3ff02
0xc0008be0 0xfcf7fdef
0xc0008be4 0xf6ef0002
0xc0008be8 0xfef700f2
0xc0008bec 0xf5f00002
0xc0008bf0 0xfef8fff2
0xc0008bf4 0xf5f00002
0xc0008bf8 0xfef7fff2
0xc0008bfc 0xf5f10103
0xc0008c00 0xfdf7fff2
0xc0008c04 0xf4f10102
0xc0008c08 0xfdf7fff2
0xc0008c0c 0xf4f10102
0xc0008c10 0xfdf7fff2
0xc0008c14 0xf4f10102
0xc0008c18 0xfdf7fff2
0xc0008c1c 0xf4f10102
0xc0008c20 0xfdf7fff2
0xc0008c24 0xf4f00102
0xc0008c28 0xfaf3fdf3
0xc0008c2c 0xf0f40100
0xc0008c30 0xfcf9fff4
0xc0008c34 0xf3f6ff02
0xc0008c38 0xfdf6fcf7
0xc0008c3c 0xf7f0ff01
0xc0008c40 0x00fb01f5
0xc0008c44 0xf2ef0203
0xc0008c48 0x00f800f3
0xc0008c4c 0xfbf30107
0xc0008c50 0xfbf800f6
0xc0008c54 0xf5f30001
0xc0008c58 0xe723f108
0xc0008c5c 0xfd030500
0xc0008c60 0xc328d324
0xc0008c64 0xf14ef2fa
0xc0008c68 0xccf0f23a
0xc0008c6c 0xf25f0313
0xc0008c70 0xeaea2669
0xc0008c74 0x160c1106
0xc0008c78 0xf7071437
0xc0008c7c 0x18b3f9c8
0xc0008c80 0x2b1425d7
0xc0008c84 0x34dbd6ee
0xc0008c88 0x1d1e2dec
0xc0008c8c 0x1a18df03
0xc0008c90 0xfef8fef3
0xc0008c94 0xf3f10003
0xc0008c98 0xfff602f4
0xc0008c9c 0xf8f10003
0xc0008ca0 0xfdf603f4
0xc0008ca4 0xf5f10001
0xc0008ca8 0xfff700f2
0xc0008cac 0xf5f00003
0xc0008cb0 0xfdf7fff2
0xc0008cb4 0xf6f10002
0xc0008cb8 0xfef700f2
0xc0008cbc 0xf4f10002
0xc0008cc0 0xfdf7fff2
0xc0008cc4 0xf4f10102
0xc0008cc8 0xfdf7fff2
0xc0008ccc 0xf4f10102
0xc0008cd0 0xfdf7fff2
0xc0008cd4 0xf4f10102
0xc0008cd8 0xfdf7fff2
0xc0008cdc 0xf4f10102
0xc0008ce0 0xfcf8fff3
0xc0008ce4 0xf4f20003
0xc0008ce8 0xfcf9fef4
0xc0008cec 0xf7f6fd03
0xc0008cf0 0xfcf2fdf7
0xc0008cf4 0xf6f20202
0xc0008cf8 0xf9fdfef7
0xc0008cfc 0xf2f3feff
0xc0008d00 0xf9f6faf1
0xc0008d04 0xf8ee0000
0xc0008d08 0x01fd02f6
0xc0008d0c 0xf1f3fd01
0xc0008d10 0xfdf9fef4
0xc0008d14 0xfaf4ff05
0xc0008d18 0xd613e418
0xc0008d1c 0xe91306fb
0xc0008d20 0xc339d923
0xc0008d24 0xe869e307
0xc0008d28 0xdbd3ec33
0xc0008d2c 0xfb4bf81d
0xc0008d30 0xfee42c75
0xc0008d34 0x18f614f7
0xc0008d38 0xeb0d082c
0xc0008d3c 0x41c6e5bc
0xc0008d40 0x1b1b16c6
0xc0008d44 0x20decbdd
0xc0008d48 0x34161de1
0xc0008d4c 0x080adf10
0xc0008d50 0xfbf6fff4
0xc0008d54 0xf6f00001
0xc0008d58 0xfdfa02f4
0xc0008d5c 0xf4f20202
0xc0008d60 0xfff7fdf1
0xc0008d64 0xf8f2ff05
0xc0008d68 0xfdf701f3
0xc0008d6c 0xf5f00101
0xc0008d70 0xfef7fff2
0xc0008d74 0xf5f10003
0xc0008d78 0xfef7fff1
0xc0008d7c 0xf5f10003
0xc0008d80 0xfdf7fff2
0xc0008d84 0xf4f10102
0xc0008d88 0xfdf7fff2
0xc0008d8c 0xf4f10102
0xc0008d90 0xfdf7fff2
0xc0008d94 0xf4f10102
0xc0008d98 0xfdf7fff2
0xc0008d9c 0xf4f10102
0xc0008da0 0xf9fffdf5
0xc0008da4 0xf6f6ff04
0xc0008da8 0x02fbfbf3
0xc0008dac 0xf5f8fe07
0xc0008db0 0xf9f300f2
0xc0008db4 0xf8f10508
0xc0008db8 0xfaf608fa
0xc0008dbc 0xfbf80501
0xc0008dc0 0xfbfbfbf0
0xc0008dc4 0xf6f1f900
0xc0008dc8 0x01fbfdf3
0xc0008dcc 0xfbf2ff03
0xc0008dd0 0xf312fdfa
0xc0008dd4 0xf602fb0a
0xc0008dd8 0xd428cf28
0xc0008ddc 0xff44e916
0xc0008de0 0xc618e22d
0xc0008de4 0xff5ef912
0xc0008de8 0xcffdfe47
0xc0008dec 0x0a380010
0xc0008df0 0xeae51056
0xc0008df4 0x3ed016dd
0xc0008df8 0x031e2e1d
0xc0008dfc 0x2cded1ba
0xc0008e00 0x1a0814bd
0xc0008e04 0x27e8c4ea
0xc0008e08 0x260b23e3
0xc0008e0c 0xfdfae902
0xc0008e10 0xfefbfef4
0xc0008e14 0xf4f3ff04
0xc0008e18 0xfdf4fef3
0xc0008e1c 0xf8ee0101
0xc0008e20 0xfcfa02f4
0xc0008e24 0xf4f1feff
0xc0008e28 0xfdf7fef2
0xc0008e2c 0xf5f00102
0xc0008e30 0xfef700f3
0xc0008e34 0xf4f10002
0xc0008e38 0xfdf7fff2
0xc0008e3c 0xf5f10002
0xc0008e40 0xfdf7fff2
0xc0008e44 0xf4f10102
0xc0008e48 0xfdf7fff2
0xc0008e4c 0xf4f10102
0xc0008e50 0xfdf7fff2
0xc0008e54 0xf4f10102
0xc0008e58 0xfdf7fff2
0xc0008e5c 0xf4f10102
0xc0008e60 0xf10df8fc
0xc0008e64 0xf7ffff04
0xc0008e68 0xfd26edfd
0xc0008e6c 0xfc19ed22
0xc0008e70 0x1113edf6
0xc0008e74 0xff07023c
0xc0008e78 0xff000bf5
0xc0008e7c 0x12fb1c38
0xc0008e80 0xdc1a10f1
0xc0008e84 0x1f0d131d
0xc0008e88 0xee2defe9
0xc0008e8c 0x111cee24
0xc0008e90 0xff39daff
0xc0008e94 0x0f13002f
0xc0008e98 0xb932e021
0xc0008e9c 0x074a0e22
0xc0008ea0 0xbb06063b
0xc0008ea4 0x0c701724
0xc0008ea8 0xe4e51f4d
0xc0008eac 0x170f10f8
0xc0008eb0 0xe2f81640
0xc0008eb4 0x2ecaeeb9
0xc0008eb8 0x320939ed
0xc0008ebc 0x3cdacdce
0xc0008ec0 0x2c072ce1
0xc0008ec4 0x03ffd2fa
0xc0008ec8 0x14fc0be1
0xc0008ecc 0x07f9f90d
0xc0008ed0 0xfef602f6
0xc0008ed4 0xf7f1fefd
0xc0008ed8 0xfff7fff4
0xc0008edc 0xf2f0ff00
0xc0008ee0 0x00f700f1
0xc0008ee4 0xf8f20004
0xc0008ee8 0xfdf700f2
0xc0008eec 0xf5f00002
0xc0008ef0 0xfef800f1
0xc0008ef4 0xf6f10003
0xc0008ef8 0xfdf7fff2
0xc0008efc 0xf5f10002
0xc0008f00 0xfdf7fff2
0xc0008f04 0xf4f10102
0xc0008f08 0xfdf7fff2
0xc0008f0c 0xf4f10102
0xc0008f10 0xfdf7fff2
0xc0008f14 0xf4f10102
0xc0008f18 0xfdf7fff2
0xc0008f1c 0xf4f10102
0xc0008f20 0xeefff303
0xc0008f24 0xf1f40bf7
0xc0008f28 0xe02ef60d
0xc0008f2c 0xf7030ffc
0xc0008f30 0xed44f01a
0xc0008f34 0xee0f0e22
0xc0008f38 0x1a35031d
0xc0008f3c 0xf3131555
0xc0008f40 0x042b1024
0xc0008f44 0x22251a5b
0xc0008f48 0xd3540e19
0xc0008f4c 0x3f311d43
0xc0008f50 0xc052e917
0xc0008f54 0x15382448
0xc0008f58 0xc62f061e
0xc0008f5c 0xf6532938
0xc0008f60 0xb9ce1f42
0xc0008f64 0x22520813
0xc0008f68 0xf1f42f76
0xc0008f6c 0x2e0beccc
0xc0008f70 0x00f6f427
0xc0008f74 0x28b3d3ac
0xc0008f78 0x221124d8
0xc0008f7c 0x18ded1d7
0xc0008f80 0x32121ee3
0xc0008f84 0x0807e00b
0xc0008f88 0xfff300f3
0xc0008f8c 0xf5ef0000
0xc0008f90 0xfef9fef3
0xc0008f94 0xf5f1ff01
0xc0008f98 0xfbf7fef2
0xc0008f9c 0xf7f00000
0xc0008fa0 0xfff702f3
0xc0008fa4 0xf3f00001
0xc0008fa8 0xfff700f3
0xc0008fac 0xf5f10003
0xc0008fb0 0xfdf700f2
0xc0008fb4 0xf5f10002
0xc0008fb8 0xfdf700f2
0xc0008fbc 0xf4f10002
0xc0008fc0 0xfdf7fff2
0xc0008fc4 0xf4f10102
0xc0008fc8 0xfdf7fff2
0xc0008fcc 0xf4f10102
0xc0008fd0 0xfdf7fff2
0xc0008fd4 0xf4f10102
0xc0008fd8 0xfdf7fff2
0xc0008fdc 0xf4f10102
0xc0008fe0 0xe9e7f3fe
0xc0008fe4 0xe706f8fd
0xc0008fe8 0xe6e6ec0e
0xc0008fec 0xd618f8f9
0xc0008ff0 0xe010dd1a
0xc0008ff4 0xdc02f9ee
0xc0008ff8 0xe82ee822
0xc0008ffc 0xf1d91cee
0xc0009000 0xfe3b0341
0xc0009004 0xe4f42d09
0xc0009008 0xf0230a4d
0xc000900c 0xe026281f
0xc0009010 0xcb180e53
0xc0009014 0xf048fd14
0xc0009018 0xd5ce175c
0xc000901c 0xfa35fae8
0xc0009020 0xeadc1a6d
0xc0009024 0x1120dcbf
0xc0009028 0xe5ddf65d
0xc000902c 0x4fe1d89c
0xc0009030 0x0a141312
0xc0009034 0x01c7c699
0xc0009038 0x33f80dc3
0xc000903c 0x02dad0f3
0xc0009040 0x270921e1
0xc0009044 0xfbf9e800
0xc0009048 0xfbf6fef2
0xc000904c 0xf6f2ff00
0xc0009050 0xfdf500f4
0xc0009054 0xf5f1ffff
0xc0009058 0xfef600f2
0xc000905c 0xf1f0ff01
0xc0009060 0xfff6fff1
0xc0009064 0xf6f00002
0xc0009068 0xfef700f3
0xc000906c 0xf4f00001
0xc0009070 0xfef7fff2
0xc0009074 0xf4f10002
0xc0009078 0xfef7fff2
0xc000907c 0xf5f10003
0xc0009080 0xfdf7fff2
0xc0009084 0xf4f10102
0xc0009088 0xfdf7fff2
0xc000908c 0xf4f10102
0xc0009090 0xfdf7fff2
0xc0009094 0xf4f10102
0xc0009098 0xfdf7fff2
0xc000909c 0xf4f10102
0xc00090a0 0xedf502f7
0xc00090a4 0x0104f6f8
0xc00090a8 0xdad8f918
0xc00090ac 0x111de8f1
0xc00090b0 0xd9d6e936
0xc00090b4 0xe91bdeda
0xc00090b8 0xd5dec218
0xc00090bc 0xc9f6ced0
0xc00090c0 0xe1f2d105
0xc00090c4 0xdff7c2ca
0xc00090c8 0xebf3ec25
0xc00090cc 0xf617c0d3
0xc00090d0 0xece8ed41
0xc00090d4 0xfd24d2bf
0xc00090d8 0xd5e2d63b
0xc00090dc 0x1a0bc9a4
0xc00090e0 0xf1d8ed3b
0xc00090e4 0x23dcd980
0xc00090e8 0x0bfb0513
0xc00090ec 0xf5d0b896
0xc00090f0 0x32ea20d3
0xc00090f4 0x0fd3cdd1
0xc00090f8 0x36f828d6
0xc00090fc 0xe8e3d8f7
0xc0009100 0x14fc0be2
0xc0009104 0x07f7fc0d
0xc0009108 0xfef600f2
0xc000910c 0xf4f00001
0xc0009110 0xfef600f2
0xc0009114 0xf6f1ff02
0xc0009118 0xfef600f3
0xc000911c 0xf6f10002
0xc0009120 0xfdf7fef3
0xc0009124 0xf3f00001
0xc0009128 0xfdf7fef1
0xc000912c 0xf5f00001
0xc0009130 0xfef700f2
0xc0009134 0xf4f00001
0xc0009138 0xfdf7fff2
0xc000913c 0xf4f10002
0xc0009140 0xfdf7fff2
0xc0009144 0xf4f10102
0xc0009148 0xfdf7fff2
0xc000914c 0xf4f10102
0xc0009150 0xfdf7fff2
0xc0009154 0xf4f10102
0xc0009158 0xfdf7fff2
0xc000915c 0xf4f10102
0xc0009160 0xfae903ed
0xc0009164 0xecf307ef
0xc0009168 0xe5d808f3
0xc000916c 0xfa10f6dc
0xc0009170 0xe0c7171b
0xc0009174 0x2723e2cc
0xc0009178 0xeec61336
0xc000917c 0x21ffd4ba
0xc0009180 0xf3d4ff16
0xc0009184 0x11e2ceb0
0xc0009188 0xe8d6fbff
0xc000918c 0x16f2c6a1
0xc0009190 0xdfcc091a
0xc0009194 0x1401bd84
0xc0009198 0xeec1101a
0xc000919c 0xf4e1c080
0xc00091a0 0x0ad712f6
0xc00091a4 0xf8ceb59d
0xc00091a8 0x35e530da
0xc00091ac 0x03cdd0c9
0xc00091b0 0x35f222d3
0xc00091b4 0xebe0ddfc
0xc00091b8 0x19fe0ddf
0xc00091bc 0x09f8fb10
0xc00091c0 0xfef6fff2
0xc00091c4 0xf4f00002
0xc00091c8 0xfef7fff2
0xc00091cc 0xf5f10102
0xc00091d0 0xfdf6fff2
0xc00091d4 0xf4f10101
0xc00091d8 0xfdf6fff2
0xc00091dc 0xf5f10002
0xc00091e0 0xfef600f3
0xc00091e4 0xf5f10001
0xc00091e8 0xfef6fff2
0xc00091ec 0xf4f00002
0xc00091f0 0xfef700f1
0xc00091f4 0xf5f10003
0xc00091f8 0xfef7fff2
0xc00091fc 0xf5f10102
0xc0009200 0xedeffaf9
0xc0009204 0xf8ebf30f
0xc0009208 0xedeffaf9
0xc000920c 0xf8ebf30f
0xc0009210 0xedeffaf9
0xc0009214 0xf8ebf30f
0xc0009218 0xedeffaf9
0xc000921c 0xf8ebf30f
0xc0009220 0xeeeff9f8
0xc0009224 0xf8eaf30f
0xc0009228 0xeff1f8f9
0xc000922c 0xf5ebf513
0xc0009230 0xeef0fbfa
0xc0009234 0xf7edf30d
0xc0009238 0xedf1f8fb
0xc000923c 0xf9eef40f
0xc0009240 0xeceffaf7
0xc0009244 0xfaeef10f
0xc0009248 0xeef0f9f8
0xc000924c 0xfbecf00b
0xc0009250 0xecf1f9f6
0xc0009254 0xf7eef011
0xc0009258 0xf0eefcf9
0xc000925c 0xf9ecf20d
0xc0009260 0xedf4f9f6
0xc0009264 0xf8ecf30d
0xc0009268 0xeeecfcfa
0xc000926c 0xfbedf40f
0xc0009270 0xeef2f8f8
0xc0009274 0xf8eef30c
0xc0009278 0xeeeffaf7
0xc000927c 0xfaebf10d
0xc0009280 0xeeeffbf8
0xc0009284 0xfaedf30e
0xc0009288 0xefeffbf8
0xc000928c 0xfaedf30d
0xc0009290 0xeeeffaf7
0xc0009294 0xf9ebf20d
0xc0009298 0xeeeffaf8
0xc000929c 0xf8ebf30e
0xc00092a0 0xeef0fbf8
0xc00092a4 0xf9ecf10e
0xc00092a8 0xedeffaf8
0xc00092ac 0xf9ebf20e
0xc00092b0 0xedeffaf8
0xc00092b4 0xf9ebf20f
0xc00092b8 0xedeffaf8
0xc00092bc 0xf9ebf30f
0xc00092c0 0xedeffaf9
0xc00092c4 0xf8ebf30f
0xc00092c8 0xedeffaf9
0xc00092cc 0xf8ebf30f
0xc00092d0 0xedeffaf9
0xc00092d4 0xf8ebf30f
0xc00092d8 0xedeffaf9
0xc00092dc 0xf8ebf30f
0xc00092e0 0xeef1faf8
0xc00092e4 0xf6edf312
0xc00092e8 0xf0eefafa
0xc00092ec 0xfaecf20d
0xc00092f0 0xebf1faf9
0xc00092f4 0xf9edf00f
0xc00092f8 0xf0ecf8f6
0xc00092fc 0xf9ecf00d
0xc0009300 0xeef2faf7
0xc0009304 0xfbeef00f
0xc0009308 0xf0f0fbf5
0xc000930c 0xf7eaf40b
0xc0009310 0xf405f7ed
0xc0009314 0xe500fb25
0xc0009318 0xf10010f7
0xc000931c 0xf010eb18
0xc0009320 0xdb0f0104
0xc0009324 0xf60ed211
0xc0009328 0xc7f9edf8
0xc000932c 0x000eb526
0xc0009330 0xc0feefed
0xc0009334 0x1316ab28
0xc0009338 0xbff4ebf8
0xc000933c 0x1e0ca61e
0xc0009340 0xbeeddff3
0xc0009344 0x1dfcaf1b
0xc0009348 0xcce9e3e8
0xc000934c 0x16f8c523
0xc0009350 0xe2f0f4ea
0xc0009354 0x0df7de19
0xc0009358 0xecf3faf6
0xc000935c 0xfff1ef0e
0xc0009360 0xedf0f9f9
0xc0009364 0xf9ecf20f
0xc0009368 0xedeef9f8
0xc000936c 0xf9ebf10e
0xc0009370 0xedf0faf8
0xc0009374 0xfaebf20f
0xc0009378 0xedeffaf9
0xc000937c 0xf8ebf30f
0xc0009380 0xedeffaf9
0xc0009384 0xf8ebf30f
0xc0009388 0xedeffaf9
0xc000938c 0xf8ebf30f
0xc0009390 0xedeffaf9
0xc0009394 0xf8ebf30f
0xc0009398 0xedeffaf9
0xc000939c 0xf8ebf30f
0xc00093a0 0xefeef8f9
0xc00093a4 0xfaebf40e
0xc00093a8 0xedf1f9f6
0xc00093ac 0xf7ebf20f
0xc00093b0 0xf1effaf9
0xc00093b4 0xf5edf310
0xc00093b8 0xf0f6faf5
0xc00093bc 0xf4f0f40e
0xc00093c0 0xf205feed
0xc00093c4 0xe801fa21
0xc00093c8 0xef010dfb
0xc00093cc 0xf012e818
0xc00093d0 0xea00e706
0xc00093d4 0x0d14d8ff
0xc00093d8 0xc9efdce9
0xc00093dc 0x1e2daf19
0xc00093e0 0xd7e8ecce
0xc00093e4 0x292f87f8
0xc00093e8 0xdcfae8c1
0xc00093ec 0x3d1c80dc
0xc00093f0 0xd9ecfbb0
0xc00093f4 0x44018cd3
0xc00093f8 0xe3f810a7
0xc00093fc 0x30f69fdd
0xc0009400 0xf3fe20b7
0xc0009404 0x19e5bdda
0xc0009408 0xf4ff19d7
0xc000940c 0x13dae2e6
0xc0009410 0xebf30de8
0xc0009414 0x09dafbf9
0xc0009418 0xebee01f1
0xc000941c 0xfce7f90b
0xc0009420 0xefeffcf9
0xc0009424 0xf9edf10e
0xc0009428 0xedf1f9f8
0xc000942c 0xf9ebf10d
0xc0009430 0xededfaf8
0xc0009434 0xfaebf20f
0xc0009438 0xedf0f9f8
0xc000943c 0xf9ebf20f
0xc0009440 0xedeffaf9
0xc0009444 0xf8ebf30f
0xc0009448 0xedeffaf9
0xc000944c 0xf8ebf30f
0xc0009450 0xedeffaf9
0xc0009454 0xf8ebf30f
0xc0009458 0xedeffaf9
0xc000945c 0xf8ebf30f
0xc0009460 0xeff0f9f7
0xc0009464 0xf6e9f30f
0xc0009468 0xf0f0f9fb
0xc000946c 0xf5edf411
0xc0009470 0xf206f8eb
0xc0009474 0xe301fc23
0xc0009478 0xf6fe0efb
0xc000947c 0xf512ec18
0xc0009480 0xeb03eb06
0xc0009484 0x0d19dbfc
0xc0009488 0xcbe5deec
0xc000948c 0x2023a70d
0xc0009490 0xe9e9d9c0
0xc0009494 0x1e0888dd
0xc0009498 0x11fbc2ba
0xc000949c 0x110698e2
0xc00094a0 0x1f07ebac
0xc00094a4 0x0314d2c5
0xc00094a8 0x412405c8
0xc00094ac 0x0101e19d
0xc00094b0 0x482bf5ed
0xc00094b4 0xf4ef0395
0xc00094b8 0x321ef808
0xc00094bc 0x03f819ad
0xc00094c0 0x1513fa11
0xc00094c4 0x0ffc15bb
0xc00094c8 0x0808f90e
0xc00094cc 0x11ef04d3
0xc00094d0 0xfdfcf406
0xc00094d4 0x04e9faef
0xc00094d8 0xf1f2f5fe
0xc00094dc 0xfbebf806
0xc00094e0 0xecf0fbf7
0xc00094e4 0xf9edf30e
0xc00094e8 0xeeeffcf7
0xc00094ec 0xfaecf10c
0xc00094f0 0xeef1fbf8
0xc00094f4 0xfaecf20d
0xc00094f8 0xedeefbf7
0xc00094fc 0xf9eaf30e
0xc0009500 0xedeffaf9
0xc0009504 0xf8ebf30f
0xc0009508 0xedeffaf9
0xc000950c 0xf8ebf30f
0xc0009510 0xedeffaf9
0xc0009514 0xf8ebf30f
0xc0009518 0xedeffaf9
0xc000951c 0xf8ebf30f
0xc0009520 0xeff0faf9
0xc0009524 0xf6ebf310
0xc0009528 0xf206f8eb
0xc000952c 0xe3fdfd27
0xc0009530 0x04f1fafc
0xc0009534 0x071af707
0xc0009538 0xddfbf0fe
0xc000953c 0x1b1ecbf6
0xc0009540 0xf2deccc9
0xc0009544 0x02fa9cdd
0xc0009548 0x10feccb7
0xc000954c 0x060b98eb
0xc0009550 0x3020ffbe
0xc0009554 0xd809d5ce
0xc0009558 0x6937f7eb
0xc000955c 0xd0e4f89c
0xc0009560 0x5c30f71c
0xc0009564 0xe9003fae
0xc0009568 0x51141235
0xc000956c 0x022852bc
0xc0009570 0x5a0cfc29
0xc0009574 0x022126b4
0xc0009578 0x42fffd18
0xc000957c 0x131120c3
0xc0009580 0x23eb0409
0xc0009584 0x181119e0
0xc0009588 0x13e6fdfe
0xc000958c 0x080904f5
0xc0009590 0x08ebf0f1
0xc0009594 0xf4f1eaf8
0xc0009598 0xf8f2f1f3
0xc000959c 0xf3e7ec03
0xc00095a0 0xefeff9fa
0xc00095a4 0xf9edf40f
0xc00095a8 0xeeeffbf9
0xc00095ac 0xfaeef50d
0xc00095b0 0xeff0faf8
0xc00095b4 0xf9ebf20d
0xc00095b8 0xedeffaf9
0xc00095bc 0xf9ebf30e
0xc00095c0 0xedeffaf9
0xc00095c4 0xf8ebf30f
0xc00095c8 0xedeffaf9
0xc00095cc 0xf8ebf30f
0xc00095d0 0xedeffaf9
0xc00095d4 0xf8ebf30f
0xc00095d8 0xedeffaf9
0xc00095dc 0xf8ebf30f
0xc00095e0 0xeef0f8f9
0xc00095e4 0xf7eaf512
0xc00095e8 0x01f8e4ee
0xc00095ec 0xfb0a0612
0xc00095f0 0x0afdf2de
0xc00095f4 0xf818eafd
0xc00095f8 0x1300eae9
0xc00095fc 0xdc0bbbe0
0xc0009600 0x1d1ad1dc
0xc0009604 0xbd0aa3df
0xc0009608 0x4721e8eb
0xc000960c 0xf2f5dac1
0xc0009610 0x4136f724
0xc0009614 0x060347cc
0xc0009618 0x3c240738
0xc000961c 0x030c55ce
0xc0009620 0x3f0cf33d
0xc0009624 0x030e4bdf
0xc0009628 0x130d020e
0xc000962c 0x022765fa
0xc0009630 0xf6fa25ed
0xc0009634 0x0f2943f3
0xc0009638 0xe7f91edd
0xc000963c 0x092120e8
0xc0009640 0xdfef1dd1
0xc0009644 0x041609ee
0xc0009648 0xdcf51dcb
0xc000964c 0x0304fef2
0xc0009650 0xdff016d9
0xc0009654 0xfff3f0fc
0xc0009658 0xebeb04f0
0xc000965c 0xf9edee07
0xc0009660 0xf0f0f9f9
0xc0009664 0xf9ebf20c
0xc0009668 0xedf0fcf8
0xc000966c 0xfaedf60e
0xc0009670 0xeeeefcf9
0xc0009674 0xfaecf30e
0xc0009678 0xeeeff9f8
0xc000967c 0xf8eaf20e
0xc0009680 0xedeffaf9
0xc0009684 0xf8ebf30f
0xc0009688 0xedeffaf9
0xc000968c 0xf8ebf30f
0xc0009690 0xedeffaf9
0xc0009694 0xf8ebf30f
0xc0009698 0xedeffaf9
0xc000969c 0xf8ebf30f
0xc00096a0 0xeeeff9f9
0xc00096a4 0xf9ebf30f
0xc00096a8 0x1700d5df
0xc00096ac 0xe5f50d05
0xc00096b0 0x3409e5f7
0xc00096b4 0xc629fa16
0xc00096b8 0x2e17ed07
0xc00096bc 0xb21dc3cc
0xc00096c0 0x2a2ddb0b
0xc00096c4 0xf001ced2
0xc00096c8 0x1e220b0f
0xc00096cc 0x40061fd2
0xc00096d0 0x19090d17
0xc00096d4 0x320f58d8
0xc00096d8 0xfd040c03
0xc00096dc 0x0d255aff
0xc00096e0 0xebfd15e0
0xc00096e4 0xfb1524f1
0xc00096e8 0xddf611d7
0xc00096ec 0xfd1010ef
0xc00096f0 0xd0f724d3
0xc00096f4 0x09110bf9
0xc00096f8 0xdef01dd2
0xc00096fc 0x00fcf9f6
0xc0009700 0xe6f10ce3
0xc0009704 0xfdf1eeff
0xc0009708 0xebee03f3
0xc000970c 0xfaecf207
0xc0009710 0xf0f1faf9
0xc0009714 0xf7edf40e
0xc0009718 0xeef2fbf8
0xc000971c 0xf9edf50e
0xc0009720 0xebf0fcf9
0xc0009724 0xfaecf20c
0xc0009728 0xecedf8fa
0xc000972c 0xfaecf110
0xc0009730 0xecf0faf6
0xc0009734 0xfaedf210
0xc0009738 0xeceffbf7
0xc000973c 0xf9ebf20e
0xc0009740 0xedeffaf9
0xc0009744 0xf8ebf30f
0xc0009748 0xedeffaf9
0xc000974c 0xf8ebf30f
0xc0009750 0xedeffaf9
0xc0009754 0xf8ebf30f
0xc0009758 0xedeffaf9
0xc000975c 0xf8ebf30f
0xc0009760 0xeeeff9f8
0xc0009764 0xf8eaf30f
0xc0009768 0x270ad9e9
0xc000976c 0xc9f80c0d
0xc0009770 0x5118c80a
0xc0009774 0xae06151b
0xc0009778 0x1329f312
0xc000977c 0xc82df5e1
0xc0009780 0x0516051e
0xc0009784 0x3634f2d0
0xc0009788 0xfb180ceb
0xc000978c 0x5b2020ca
0xc0009790 0xe3fc25c9
0xc0009794 0x281421c1
0xc0009798 0xddf31bcf
0xc000979c 0x030b04f1
0xc00097a0 0xddf31ad0
0xc00097a4 0xfcf7f5f7
0xc00097a8 0xe9ed0ae6
0xc00097ac 0xfaebea00
0xc00097b0 0xf1f0fdfa
0xc00097b4 0xf7f1f912
0xc00097b8 0xf0f1fbfa
0xc00097bc 0xf7f1f30a
0xc00097c0 0xeff2f8fa
0xc00097c4 0xfbeaef09
0xc00097c8 0xedeff7fa
0xc00097cc 0xfaeef411
0xc00097d0 0xefeff9f8
0xc00097d4 0xfceff20c
0xc00097d8 0xeef0f9f8
0xc00097dc 0xfbedf20d
0xc00097e0 0xeeeefbf6
0xc00097e4 0xf9edf20d
0xc00097e8 0xeef0fbf6
0xc00097ec 0xf9ebef0c
0xc00097f0 0xedeffcf7
0xc00097f4 0xfaeaf30e
0xc00097f8 0xedeffaf8
0xc00097fc 0xf8eaf30f
0xc0009800 0xedeffaf9
0xc0009804 0xf8ebf30f
0xc0009808 0xedeffaf9
0xc000980c 0xf8ebf30f
0xc0009810 0xedeffaf9
0xc0009814 0xf8ebf30f
0xc0009818 0xedeffaf9
0xc000981c 0xf8ebf30f
0xc0009820 0xeef1faf8
0xc0009824 0xf6edf311
0xc0009828 0x2d14caf8
0xc000982c 0xbee32321
0xc0009830 0x4426c409
0xc0009834 0xa9061513
0xc0009838 0x010d021d
0xc000983c 0xec50fcde
0xc0009840 0xef1327ef
0xc0009844 0x505ef0be
0xc0009848 0xff002bbd
0xc000984c 0x6012e7a7
0xc0009850 0xf21013ae
0xc0009854 0xfefb00d7
0xc0009858 0xf1f919ef
0xc000985c 0xf10ce411
0xc0009860 0xd813fd03
0xc0009864 0xf20cd413
0xc0009868 0xc7e6ee07
0xc000986c 0x0c01b019
0xc0009870 0xbff1daf4
0xc0009874 0x1efab318
0xc0009878 0xcbe5e6e3
0xc000987c 0x18fcc727
0xc0009880 0xe5f1fbea
0xc0009884 0x0ffbde14
0xc0009888 0xeff5f7f4
0xc000988c 0xfeeded0a
0xc0009890 0xeceffcf4
0xc0009894 0xfaeaf50d
0xc0009898 0xf0effbf8
0xc000989c 0xf8edf40f
0xc00098a0 0xeff1f9f9
0xc00098a4 0xf7eef40d
0xc00098a8 0xeef0fbf9
0xc00098ac 0xfaebf30c
0xc00098b0 0xeeeff9f9
0xc00098b4 0xf9ebf30e
0xc00098b8 0xedeffaf9
0xc00098bc 0xf9ebf30f
0xc00098c0 0xedeffaf9
0xc00098c4 0xf8ebf30f
0xc00098c8 0xedeffaf9
0xc00098cc 0xf8ebf30f
0xc00098d0 0xedeffaf9
0xc00098d4 0xf8ebf30f
0xc00098d8 0xedeffaf9
0xc00098dc 0xf8ebf30f
0xc00098e0 0xefeef8f9
0xc00098e4 0xfaebf40e
0xc00098e8 0x290ecbfa
0xc00098ec 0xc4de201c
0xc00098f0 0x4628c2ff
0xc00098f4 0xa0011916
0xc00098f8 0x0a070f15
0xc00098fc 0xef54fbd7
0xc0009900 0xf72c2de8
0xc0009904 0x3b7007d3
0xc0009908 0x050d38bc
0xc000990c 0x4c29d7b2
0xc0009910 0xf009f9d8
0xc0009914 0x230bd6b4
0xc0009918 0xc7e5e0ee
0xc000991c 0x2321a90d
0xc0009920 0xd5f1e5c2
0xc0009924 0x1f2f8d02
0xc0009928 0xda0b04b6
0xc000992c 0x1f298003
0xc0009930 0xd6021ac7
0xc0009934 0x2df286cf
0xc0009938 0xc6fdf2d9
0xc000993c 0x2be2acf8
0xc0009940 0xcee6fdd1
0xc0009944 0x23ebdb12
0xc0009948 0xe6f704e8
0xc000994c 0x11f3e807
0xc0009950 0xeef3f9fc
0xc0009954 0xfaedf10d
0xc0009958 0xeeeef8f8
0xc000995c 0xf8ebf30e
0xc0009960 0xedf0fbf7
0xc0009964 0xfbedf20e
0xc0009968 0xeeeefcf9
0xc000996c 0xfbeef40e
0xc0009970 0xefeff9f8
0xc0009974 0xf9ebf20e
0xc0009978 0xeeeffaf8
0xc000997c 0xf8eaf30e
0xc0009980 0xedeffaf9
0xc0009984 0xf8ebf30f
0xc0009988 0xedeffaf9
0xc000998c 0xf8ebf30f
0xc0009990 0xedeffaf9
0xc0009994 0xf8ebf30f
0xc0009998 0xedeffaf9
0xc000999c 0xf8ebf30f
0xc00099a0 0xeff0f9f8
0xc00099a4 0xf6e9f30e
0xc00099a8 0x2504d006
0xc00099ac 0xc9ce1a14
0xc00099b0 0x472bb0ff
0xc00099b4 0x9af62d1c
0xc00099b8 0x15111908
0xc00099bc 0xdf6c16f9
0xc00099c0 0x171f3503
0xc00099c4 0x517f17aa
0xc00099c8 0xf0fd15cb
0xc00099cc 0x712daf8a
0xc00099d0 0xf4e2d996
0xc00099d4 0x1ae39a98
0xc00099d8 0x19f6d0b3
0xc00099dc 0x03079ef4
0xc00099e0 0x3923edad
0xc00099e4 0xed23f5c5
0xc00099e8 0x3a2410df
0xc00099ec 0x153be7af
0xc00099f0 0x012320f4
0xc00099f4 0x2213b781
0xc00099f8 0xf70eefe5
0xc00099fc 0x29dc9cac
0xc0009a00 0xe6faf8db
0xc0009a04 0x3de4d1e9
0xc0009a08 0xe4f70fe4
0xc0009a0c 0x1bea00fa
0xc0009a10 0xf2f1faf6
0xc0009a14 0xf6eaf30b
0xc0009a18 0xeff2faf8
0xc0009a1c 0xf9ebf20c
0xc0009a20 0xebeffbfa
0xc0009a24 0xfaecf40e
0xc0009a28 0xeceefaf6
0xc0009a2c 0xf9edf30f
0xc0009a30 0xecf0fcf6
0xc0009a34 0xfaecf20d
0xc0009a38 0xedeffbf8
0xc0009a3c 0xf9ebf30e
0xc0009a40 0xedeffaf9
0xc0009a44 0xf8ebf30f
0xc0009a48 0xedeffaf9
0xc0009a4c 0xf8ebf30f
0xc0009a50 0xedeffaf9
0xc0009a54 0xf8ebf30f
0xc0009a58 0xedeffaf9
0xc0009a5c 0xf8ebf30f
0xc0009a60 0xeff0faf9
0xc0009a64 0xf6ecf311
0xc0009a68 0x1209e407
0xc0009a6c 0xc3cc0e22
0xc0009a70 0x4611b013
0xc0009a74 0xb3cd2dff
0xc0009a78 0x12f6e519
0xc0009a7c 0x074e3cfb
0xc0009a80 0x28f723db
0xc0009a84 0x31683dae
0xc0009a88 0x4d1f16ac
0xc0009a8c 0x0419d68e
0xc0009a90 0x551900bc
0xc0009a94 0xb1ece688
0xc0009a98 0x5931f605
0xc0009a9c 0xd9e708b3
0xc0009aa0 0x662de00c
0xc0009aa4 0xe3135daf
0xc0009aa8 0x6b14f622
0xc0009aac 0x10583dc2
0xc0009ab0 0x370c0717
0xc0009ab4 0x0e59e89d
0xc0009ab8 0x200eedf1
0xc0009abc 0x251da699
0xc0009ac0 0x0e05eedd
0xc0009ac4 0x43e2c3ba
0xc0009ac8 0xeeff00ea
0xc0009acc 0x17e509e6
0xc0009ad0 0xeeedfaf8
0xc0009ad4 0xfbf0f30b
0xc0009ad8 0xeef1faf8
0xc0009adc 0xfaedf00c
0xc0009ae0 0xf0effaf8
0xc0009ae4 0xf8ebf20c
0xc0009ae8 0xedf1fbf7
0xc0009aec 0xfaecf20e
0xc0009af0 0xedeefcf8
0xc0009af4 0xfaeaf50e
0xc0009af8 0xeeeff9f8
0xc0009afc 0xf8ebf20f
0xc0009b00 0xedeffaf9
0xc0009b04 0xf8ebf30f
0xc0009b08 0xedeffaf9
0xc0009b0c 0xf8ebf30f
0xc0009b10 0xedeffaf9
0xc0009b14 0xf8ebf30f
0xc0009b18 0xedeffaf9
0xc0009b1c 0xf8ebf30f
0xc0009b20 0xeeeff8fa
0xc0009b24 0xf8eaf511
0xc0009b28 0xfb03ed0a
0xc0009b2c 0xd9dc0a2a
0xc0009b30 0x1e1bd803
0xc0009b34 0xacc1120d
0xc0009b38 0x2301dd15
0xc0009b3c 0xd6003606
0xc0009b40 0x240c100d
0xc0009b44 0xdd596e09
0xc0009b48 0x531611ff
0xc0009b4c 0xdf3021b7
0xc0009b50 0x4823ec12
0xc0009b54 0xdff821ad
0xc0009b58 0x311c0339
0xc0009b5c 0x0dff44e3
0xc0009b60 0x5814d31e
0xc0009b64 0xdc1f68f2
0xc0009b68 0x5618f4fc
0xc0009b6c 0xd76349f1
0xc0009b70 0x10022be4
0xc0009b74 0xfd71f8a6
0xc0009b78 0xfb0c2bc3
0xc0009b7c 0x454acc9a
0xc0009b80 0x09fa20c8
0xc0009b84 0x5afdc8a8
0xc0009b88 0xfff8f9db
0xc0009b8c 0x0bdef6ce
0xc0009b90 0xeff1faf5
0xc0009b94 0xf9edf20d
0xc0009b98 0xeeeffdf9
0xc0009b9c 0xfaedf50e
0xc0009ba0 0xeeeff7f8
0xc0009ba4 0xf7edf10d
0xc0009ba8 0xeef0faf9
0xc0009bac 0xfbecf20e
0xc0009bb0 0xedf0faf9
0xc0009bb4 0xf9ecf40e
0xc0009bb8 0xedeffaf8
0xc0009bbc 0xf8ebf20f
0xc0009bc0 0xedeffaf9
0xc0009bc4 0xf8ebf30f
0xc0009bc8 0xedeffaf9
0xc0009bcc 0xf8ebf30f
0xc0009bd0 0xedeffaf9
0xc0009bd4 0xf8ebf30f
0xc0009bd8 0xedeffaf9
0xc0009bdc 0xf8ebf30f
0xc0009be0 0xeeeffaf8
0xc0009be4 0xf8eaf30f
0xc0009be8 0xf3f5ee02
0xc0009bec 0xf1df041c
0xc0009bf0 0xfa0fed0d
0xc0009bf4 0xcade0a2a
0xc0009bf8 0x0a03f610
0xc0009bfc 0xd0eefe02
0xc0009c00 0x0d0a011d
0xc0009c04 0xe8074e27
0xc0009c08 0xf90c21f0
0xc0009c0c 0x07125200
0xc0009c10 0xfce91d07
0xc0009c14 0x121d3400
0xc0009c18 0xfaff06fc
0xc0009c1c 0x02213b04
0xc0009c20 0x2019e3cd
0xc0009c24 0xc20a36f5
0xc0009c28 0x2d2beee0
0xc0009c2c 0xb3262d01
0xc0009c30 0xef0c2cf0
0xc0009c34 0xf662f5bd
0xc0009c38 0xea0b37e5
0xc0009c3c 0x575eebb3
0xc0009c40 0x000323b7
0xc0009c44 0x5807e1a9
0xc0009c48 0xf4f409c7
0xc0009c4c 0x0ee1ebbf
0xc0009c50 0xeef1fcf9
0xc0009c54 0xfaeef10d
0xc0009c58 0xeff0faf6
0xc0009c5c 0xf8ecf50c
0xc0009c60 0xedf0fef6
0xc0009c64 0xfbedf10c
0xc0009c68 0xedeffcf9
0xc0009c6c 0xfbecf40e
0xc0009c70 0xeeeef9f7
0xc0009c74 0xf8eaf20e
0xc0009c78 0xedeffaf8
0xc0009c7c 0xf9ebf20f
0xc0009c80 0xedeffaf9
0xc0009c84 0xf8ebf30f
0xc0009c88 0xedeffaf9
0xc0009c8c 0xf8ebf30f
0xc0009c90 0xedeffaf9
0xc0009c94 0xf8ebf30f
0xc0009c98 0xedeffaf9
0xc0009c9c 0xf8ebf30f
0xc0009ca0 0xeeeffaf9
0xc0009ca4 0xf8ebf310
0xc0009ca8 0xf0f2f9f6
0xc0009cac 0xf4ecf411
0xc0009cb0 0xf5f9eb0a
0xc0009cb4 0xedda0c25
0xc0009cb8 0xe50de705
0xc0009cbc 0xe2dd0b1d
0xc0009cc0 0xe4f9ee1a
0xc0009cc4 0xf4ef1e27
0xc0009cc8 0xd0080af0
0xc0009ccc 0x0317240d
0xc0009cd0 0xd1ed29dc
0xc0009cd4 0x0c161101
0xc0009cd8 0xd8f91ec7
0xc0009cdc 0x01fffdf4
0xc0009ce0 0x1e10e6dc
0xc0009ce4 0xc1e51610
0xc0009ce8 0x4723c908
0xc0009cec 0xa7081614
0xc0009cf0 0xfc0e0b18
0xc0009cf4 0xf358efd3
0xc0009cf8 0xf00a28f4
0xc0009cfc 0x525cf1c4
0xc0009d00 0x00041fb5
0xc0009d04 0x5a08d9a7
0xc0009d08 0xf3f20bc6
0xc0009d0c 0x10dfeac4
0xc0009d10 0xf2f0fafb
0xc0009d14 0xf9ecf50f
0xc0009d18 0xeff1f8f8
0xc0009d1c 0xf7edf30b
0xc0009d20 0xeeeffcfa
0xc0009d24 0xfbedf40e
0xc0009d28 0xeef0faf7
0xc0009d2c 0xf8ecf40d
0xc0009d30 0xedeffbf7
0xc0009d34 0xf9ebf10d
0xc0009d38 0xedeffaf8
0xc0009d3c 0xf9ebf30f
0xc0009d40 0xedeffaf9
0xc0009d44 0xf8ebf30f
0xc0009d48 0xedeffaf9
0xc0009d4c 0xf8ebf30f
0xc0009d50 0xedeffaf9
0xc0009d54 0xf8ebf30f
0xc0009d58 0xedeffaf9
0xc0009d5c 0xf8ebf30f
0xc0009d60 0xedf0faf9
0xc0009d64 0xf8ebf310
0xc0009d68 0xf0eef8fa
0xc0009d6c 0xf9edf40d
0xc0009d70 0xedf1faf6
0xc0009d74 0xf7eef110
0xc0009d78 0xf0edfdf7
0xc0009d7c 0xf9eef10c
0xc0009d80 0xedf4fbf7
0xc0009d84 0xfbedee0c
0xc0009d88 0xeeecfbf6
0xc0009d8c 0xf9e9f20d
0xc0009d90 0xeef2f8f8
0xc0009d94 0xfaedf40e
0xc0009d98 0xee01fbeb
0xc0009d9c 0xe9fcf920
0xc0009da0 0x2e0edc05
0xc0009da4 0xc9f41619
0xc0009da8 0x2e33ba0d
0xc0009dac 0xb0020107
0xc0009db0 0xeef4fc0c
0xc0009db4 0xfc55d9e6
0xc0009db8 0xed1228e8
0xc0009dbc 0x5e66e9c8
0xc0009dc0 0x020b26b0
0xc0009dc4 0x5605dda3
0xc0009dc8 0xf4f10fce
0xc0009dcc 0x0fdfedc4
0xc0009dd0 0xecf2fbf8
0xc0009dd4 0xf8edf50d
0xc0009dd8 0xededfaf7
0xc0009ddc 0xfaecf00e
0xc0009de0 0xedf0faf9
0xc0009de4 0xfbeef40f
0xc0009de8 0xeeeef9f8
0xc0009dec 0xf8ecf20e
0xc0009df0 0xeef0faf8
0xc0009df4 0xf9ebf20e
0xc0009df8 0xedeffaf9
0xc0009dfc 0xf8ebf30f
0xc0009e00 0xedeffaf9
0xc0009e04 0xf8ebf30f
0xc0009e08 0xedeffaf9
0xc0009e0c 0xf8ebf30f
0xc0009e10 0xedeffaf9
0xc0009e14 0xf8ebf30f
0xc0009e18 0xedeffaf9
0xc0009e1c 0xf8ebf30f
0xc0009e20 0xeeeffaf9
0xc0009e24 0xf9ebf30f
0xc0009e28 0xf0f1f7f7
0xc0009e2c 0xf5e7f50f
0xc0009e30 0xf2f0f6fa
0xc0009e34 0xf6eef610
0xc0009e38 0xeef1fbf8
0xc0009e3c 0xf7f2f40d
0xc0009e40 0xf1f2fcf9
0xc0009e44 0xfbedf109
0xc0009e48 0xedf2f9f8
0xc0009e4c 0xf9ecf00a
0xc0009e50 0xefeefbf7
0xc0009e54 0xfaeaf30c
0xc0009e58 0xfffbe8ee
0xc0009e5c 0xf80a0517
0xc0009e60 0x2211e4f5
0xc0009e64 0xd0020517
0xc0009e68 0x371fc60a
0xc0009e6c 0xb3f1dce0
0xc0009e70 0xf50be5f7
0xc0009e74 0xf944d0e5
0xc0009e78 0xfc0444d6
0xc0009e7c 0x6a5b0ec2
0xc0009e80 0x0e1b34c3
0xc0009e84 0x5207fb91
0xc0009e88 0xfae905d6
0xc0009e8c 0xfdd6f1c6
0xc0009e90 0xeef0fbf6
0xc0009e94 0xfaeef20c
0xc0009e98 0xedf1fcf8
0xc0009e9c 0xfaedf00e
0xc0009ea0 0xedeffbf6
0xc0009ea4 0xf9eaf40d
0xc0009ea8 0xecf0fcf6
0xc0009eac 0xfaecf20e
0xc0009eb0 0xedeefcf8
0xc0009eb4 0xf9ebf40f
0xc0009eb8 0xeeeff9f8
0xc0009ebc 0xf8ebf20f
0xc0009ec0 0xedeffaf9
0xc0009ec4 0xf8ebf30f
0xc0009ec8 0xedeffaf9
0xc0009ecc 0xf8ebf30f
0xc0009ed0 0xedeffaf9
0xc0009ed4 0xf8ebf30f
0xc0009ed8 0xedeffaf9
0xc0009edc 0xf8ebf30f
0xc0009ee0 0xeef0faf8
0xc0009ee4 0xf7ecf310
0xc0009ee8 0xf0f0fbfb
0xc0009eec 0xf5edf211
0xc0009ef0 0xf2f1f6f9
0xc0009ef4 0xf6e8f30b
0xc0009ef8 0xeeeef9fa
0xc0009efc 0xfbf1f611
0xc0009f00 0xf0f0fcf9
0xc0009f04 0xf9f1f50e
0xc0009f08 0xf3f2f9f7
0xc0009f0c 0xf8edf00a
0xc0009f10 0xedf2fcfa
0xc0009f14 0xf9eff30d
0xc0009f18 0x13fed7e2
0xc0009f1c 0xeaf80a05
0xc0009f20 0x2f14d9fe
0xc0009f24 0xc2170b27
0xc0009f28 0x2f2dda09
0xc0009f2c 0x9b01d8da
0xc0009f30 0x0f19e30a
0xc0009f34 0x102fd1c2
0xc0009f38 0xef0738f3
0xc0009f3c 0x7e5631cc
0xc0009f40 0x0c0830c7
0xc0009f44 0x3c0915a4
0xc0009f48 0x02edf8e0
0xc0009f4c 0xf3e6dfd1
0xc0009f50 0xedf1f9f8
0xc0009f54 0xf8ecf40b
0xc0009f58 0xefeff9f8
0xc0009f5c 0xf9ecf20f
0xc0009f60 0xedf1faf8
0xc0009f64 0xfaedf20c
0xc0009f68 0xedeffbf9
0xc0009f6c 0xfaebf30e
0xc0009f70 0xedeffaf8
0xc0009f74 0xf9ebf30f
0xc0009f78 0xedeffbf8
0xc0009f7c 0xf9ebf20f
0xc0009f80 0xedeffaf9
0xc0009f84 0xf8ebf30f
0xc0009f88 0xedeffaf9
0xc0009f8c 0xf8ebf30f
0xc0009f90 0xedeffaf9
0xc0009f94 0xf8ebf30f
0xc0009f98 0xedeffaf9
0xc0009f9c 0xf8ebf30f
0xc0009fa0 0xeff4f9f5
0xc0009fa4 0xf4f1f515
0xc0009fa8 0xefeefdfe
0xc0009fac 0xfaedf10f
0xc0009fb0 0xe7f6f6fa
0xc0009fb4 0xf6ebeb0b
0xc0009fb8 0xece8f4f9
0xc0009fbc 0xfbecee15
0xc0009fc0 0xecf7fcf1
0xc0009fc4 0xfcf6f810
0xc0009fc8 0xefec01f9
0xc0009fcc 0xfef1f108
0xc0009fd0 0xf006f6ea
0xc0009fd4 0xe7fff81f
0xc0009fd8 0x2500ecf0
0xc0009fdc 0xdb08f500
0xc0009fe0 0x3526bd12
0xc0009fe4 0xbc04fa0f
0xc0009fe8 0x0516e009
0xc0009fec 0xc429d5f8
0xc0009ff0 0x04150efe
0xc0009ff4 0x4842ceb6
0xc0009ff8 0x020627e9
0xc0009ffc 0x763721c7
0xc000a000 0xf6f92bbf
0xc000a004 0x25091aba
0xc000a008 0xf7e901d4
0xc000a00c 0xf1e6d5e4
0xc000a010 0xefeffcf8
0xc000a014 0xf9eef30d
0xc000a018 0xf0f0fbfa
0xc000a01c 0xfbeef30d
0xc000a020 0xeeeffaf7
0xc000a024 0xf9ebf30c
0xc000a028 0xeeeffbf9
0xc000a02c 0xf9ecf30e
0xc000a030 0xeeeff9f8
0xc000a034 0xf8ebf20e
0xc000a038 0xedeffaf8
0xc000a03c 0xf8ebf30f
0xc000a040 0xedeffaf9
0xc000a044 0xf8ebf30f
0xc000a048 0xedeffaf9
0xc000a04c 0xf8ebf30f
0xc000a050 0xedeffaf9
0xc000a054 0xf8ebf30f
0xc000a058 0xedeffaf9
0xc000a05c 0xf8ebf30f
0xc000a060 0xf5fbf3ef
0xc000a064 0xeffafc1a
0xc000a068 0xee020af0
0xc000a06c 0xed10eb21
0xc000a070 0xe6fe0703
0xc000a074 0xf802d003
0xc000a078 0xcbf6e801
0xc000a07c 0x0cf0b80b
0xc000a080 0xcdece3e5
0xc000a084 0x0ffad026
0xc000a088 0xe102fcdf
0xc000a08c 0x0218dc2f
0xc000a090 0xf8fdf5f9
0xc000a094 0x0d1ee101
0xc000a098 0x001bcef6
0xc000a09c 0xdc09d614
0xc000a0a0 0x2705b6fa
0xc000a0a4 0xc7f3b9f0
0xc000a0a8 0xf425d6f4
0xc000a0ac 0x033bd5f4
0xc000a0b0 0xf70b45d9
0xc000a0b4 0x665a0fbb
0xc000a0b8 0x0f1338d7
0xc000a0bc 0x5b18119a
0xc000a0c0 0xf2f911be
0xc000a0c4 0xfee40dc0
0xc000a0c8 0xe7e910e5
0xc000a0cc 0xfbefe6fe
0xc000a0d0 0xeff0f9f9
0xc000a0d4 0xf7edf50d
0xc000a0d8 0xeef2fcf7
0xc000a0dc 0xfaedf50c
0xc000a0e0 0xedeffcf9
0xc000a0e4 0xfaedf30d
0xc000a0e8 0xedeffaf7
0xc000a0ec 0xf9ecf30f
0xc000a0f0 0xedeffbf8
0xc000a0f4 0xf9ebf10e
0xc000a0f8 0xedeffaf9
0xc000a0fc 0xf8ebf30f
0xc000a100 0xedeffaf9
0xc000a104 0xf8ebf30f
0xc000a108 0xedeffaf9
0xc000a10c 0xf8ebf30f
0xc000a110 0xedeffaf9
0xc000a114 0xf8ebf30f
0xc000a118 0xedeffaf9
0xc000a11c 0xf8ebf30f
0xc000a120 0x00e8e7f8
0xc000a124 0x00ecfcfe
0xc000a128 0xfef0e4ed
0xc000a12c 0x0310fa0d
0xc000a130 0xfafd0bd1
0xc000a134 0xf126d701
0xc000a138 0xfd161dd9
0xc000a13c 0xfb13a5e9
0xc000a140 0xe90f00e2
0xc000a144 0x14ffb1e3
0xc000a148 0xcef7eede
0xc000a14c 0x3014bc02
0xc000a150 0xdef5e2c3
0xc000a154 0x1e18a6f0
0xc000a158 0x1c08c0e7
0xc000a15c 0xed04a7fd
0xc000a160 0x2139c5d2
0xc000a164 0xbcf9bde1
0xc000a168 0x241211f1
0xc000a16c 0x2a2cfeb4
0xc000a170 0x052447ff
0xc000a174 0x6e4f58b3
0xc000a178 0x0efb31d4
0xc000a17c 0x2bfe1fa1
0xc000a180 0x00edf7e0
0xc000a184 0xf0e7e2d4
0xc000a188 0xeff1fbf7
0xc000a18c 0xf8eaf50c
0xc000a190 0xeeeffbf8
0xc000a194 0xfaedf50d
0xc000a198 0xeeeefcfa
0xc000a19c 0xfaeef40f
0xc000a1a0 0xf0eff9f7
0xc000a1a4 0xf7ebf10c
0xc000a1a8 0xedf0fbf8
0xc000a1ac 0xf9ebf20e
0xc000a1b0 0xedeffbf8
0xc000a1b4 0xf9ebf30f
0xc000a1b8 0xeeeffaf8
0xc000a1bc 0xf8ebf30f
0xc000a1c0 0xedeffaf9
0xc000a1c4 0xf8ebf30f
0xc000a1c8 0xedeffaf9
0xc000a1cc 0xf8ebf30f
0xc000a1d0 0xedeffaf9
0xc000a1d4 0xf8ebf30f
0xc000a1d8 0xedeffaf9
0xc000a1dc 0xf8ebf30f
0xc000a1e0 0x01f9f0f2
0xc000a1e4 0xe1ddf909
0xc000a1e8 0x24f4d0fa
0xc000a1ec 0xdbe10efe
0xc000a1f0 0x1ef2d202
0xc000a1f4 0xf2201ef8
0xc000a1f8 0x1df7f2f5
0xc000a1fc 0x1133f7c9
0xc000a200 0x350aedd8
0xc000a204 0x1303c996
0xc000a208 0x3e0de6cc
0xc000a20c 0x0be6d99e
0xc000a210 0x4214f7cc
0xc000a214 0xd8fef1c0
0xc000a218 0x6331f3e7
0xc000a21c 0xb3e006bc
0xc000a220 0x5144fb10
0xc000a224 0xdff92bb0
0xc000a228 0x1c152f25
0xc000a22c 0x462f4fa1
0xc000a230 0x14fc2d08
0xc000a234 0x493055c3
0xc000a238 0x01f415d2
0xc000a23c 0x080d0dc9
0xc000a240 0xf6e802d7
0xc000a244 0xf0e5d9e9
0xc000a248 0xedf0fbf9
0xc000a24c 0xf8ecf40f
0xc000a250 0xefeefafa
0xc000a254 0xf8ecf40e
0xc000a258 0xeef0faf7
0xc000a25c 0xf8ecf610
0xc000a260 0xedeffcf8
0xc000a264 0xf8edf30d
0xc000a268 0xeeeffaf9
0xc000a26c 0xf9ebf30e
0xc000a270 0xedf0faf9
0xc000a274 0xf9ebf40e
0xc000a278 0xedeffaf8
0xc000a27c 0xf8ebf30f
0xc000a280 0xedeffaf9
0xc000a284 0xf8ebf30f
0xc000a288 0xedeffaf9
0xc000a28c 0xf8ebf30f
0xc000a290 0xedeffaf9
0xc000a294 0xf8ebf30f
0xc000a298 0xedeffaf9
0xc000a29c 0xf8ebf30f
0xc000a2a0 0xf9faf902
0xc000a2a4 0xe1e9f81c
0xc000a2a8 0x1704eefe
0xc000a2ac 0xc7daf503
0xc000a2b0 0x2dfee405
0xc000a2b4 0xd0e71d03
0xc000a2b8 0x2ffef506
0xc000a2bc 0xe7204803
0xc000a2c0 0x4e05f50e
0xc000a2c4 0xdb282edd
0xc000a2c8 0x7121ce18
0xc000a2cc 0xb90214b6
0xc000a2d0 0x702dbc37
0xc000a2d4 0xbaf03ecd
0xc000a2d8 0x4534e841
0xc000a2dc 0xdf1b57dc
0xc000a2e0 0x3210033f
0xc000a2e4 0x1e2555c5
0xc000a2e8 0x0d08190d
0xc000a2ec 0x34404ad0
0xc000a2f0 0xfee722e5
0xc000a2f4 0x172221d8
0xc000a2f8 0xeef709bd
0xc000a2fc 0xf1f5ece0
0xc000a300 0xe4e710e5
0xc000a304 0xfcede7ff
0xc000a308 0xedeffaf8
0xc000a30c 0xf8ebf40f
0xc000a310 0xedeffbf8
0xc000a314 0xf7ebf30f
0xc000a318 0xeeeffaf9
0xc000a31c 0xf8ebf30f
0xc000a320 0xedeffaf8
0xc000a324 0xf9ecf40f
0xc000a328 0xedeefbf9
0xc000a32c 0xf9ecf30f
0xc000a330 0xeeeff9f8
0xc000a334 0xf8ebf20f
0xc000a338 0xedeffaf9
0xc000a33c 0xf8ebf30f
0xc000a340 0xedeffaf9
0xc000a344 0xf8ebf30f
0xc000a348 0xedeffaf9
0xc000a34c 0xf8ebf30f
0xc000a350 0xedeffaf9
0xc000a354 0xf8ebf30f
0xc000a358 0xedeffaf9
0xc000a35c 0xf8ebf30f
0xc000a360 0xf2f6ee02
0xc000a364 0xf0dd051e
0xc000a368 0xf30aeb09
0xc000a36c 0xd7dc0c26
0xc000a370 0xff07f517
0xc000a374 0xd0ef0c18
0xc000a378 0x0305080b
0xc000a37c 0xe70f280a
0xc000a380 0x050127f6
0xc000a384 0xfa1b3f07
0xc000a388 0x1c011ff9
0xc000a38c 0xeb0932fd
0xc000a390 0x29ff0211
0xc000a394 0xe80331f9
0xc000a398 0x12fc0115
0xc000a39c 0x051b5306
0xc000a3a0 0xeef429eb
0xc000a3a4 0x1a4139ef
0xc000a3a8 0xf3e525da
0xc000a3ac 0x122112e6
0xc000a3b0 0xe6f90fbe
0xc000a3b4 0xf6f9f4e5
0xc000a3b8 0xe2e613e1
0xc000a3bc 0xfdece4fc
0xc000a3c0 0xedeffaf8
0xc000a3c4 0xf8ebf30f
0xc000a3c8 0xedeffaf8
0xc000a3cc 0xf8ebf30f
0xc000a3d0 0xedeff9f9
0xc000a3d4 0xf8eaf410
0xc000a3d8 0xedeffaf9
0xc000a3dc 0xf8ebf30f
0xc000a3e0 0xedeffaf9
0xc000a3e4 0xf9ecf310
0xc000a3e8 0xedeffaf8
0xc000a3ec 0xf8ecf40f
0xc000a3f0 0xedeffbf8
0xc000a3f4 0xf8ebf20f
0xc000a3f8 0xedeffaf8
0xc000a3fc 0xf8ebf30f
0xc000a400 0x0dfd11ee
0xc000a404 0x00000000
0xc000a408 0x0dfd11ee
0xc000a40c 0x00000000
0xc000a410 0x0dfd11ee
0xc000a414 0x00000000
0xc000a418 0x0dfd11ee
0xc000a41c 0x00000000
0xc000a420 0x0efd12ef
0xc000a424 0x00000000
0xc000a428 0x0cfc12ef
0xc000a42c 0x00000000
0xc000a430 0x0cfc11ed
0xc000a434 0x00000000
0xc000a438 0x0dfd11f1
0xc000a43c 0x00000000
0xc000a440 0x0afe0eed
0xc000a444 0x00000000
0xc000a448 0x0dfd10f2
0xc000a44c 0x00000000
0xc000a450 0x0bff11ef
0xc000a454 0x00000000
0xc000a458 0x0afb0ff0
0xc000a45c 0x00000000
0xc000a460 0x0ffc12f0
0xc000a464 0x00000000
0xc000a468 0x0cfd0def
0xc000a46c 0x00000000
0xc000a470 0x0dfc0eef
0xc000a474 0x00000000
0xc000a478 0x0bfc10f0
0xc000a47c 0x00000000
0xc000a480 0x0efd11f0
0xc000a484 0x00000000
0xc000a488 0x0cfd11f0
0xc000a48c 0x00000000
0xc000a490 0x0dfc11ef
0xc000a494 0x00000000
0xc000a498 0x0cfd12ef
0xc000a49c 0x00000000
0xc000a4a0 0x0dfd11ef
0xc000a4a4 0x00000000
0xc000a4a8 0x0dfd11f0
0xc000a4ac 0x00000000
0xc000a4b0 0x0dfd11ef
0xc000a4b4 0x00000000
0xc000a4b8 0x0dfc11ee
0xc000a4bc 0x00000000
0xc000a4c0 0x0dfd11ee
0xc000a4c4 0x00000000
0xc000a4c8 0x0dfd11ee
0xc000a4cc 0x00000000
0xc000a4d0 0x0dfd11ee
0xc000a4d4 0x00000000
0xc000a4d8 0x0dfd11ee
0xc000a4dc 0x00000000
0xc000a4e0 0x0bfd13ee
0xc000a4e4 0x00000000
0xc000a4e8 0x09fd10ee
0xc000a4ec 0x00000000
0xc000a4f0 0x0dfe0ef1
0xc000a4f4 0x00000000
0xc000a4f8 0x0a0111f2
0xc000a4fc 0x00000000
0xc000a500 0x0dfc0fee
0xc000a504 0x00000000
0xc000a508 0x0cfe12f1
0xc000a50c 0x00000000
0xc000a510 0xf80529eb
0xc000a514 0x00000000
0xc000a518 0xe4041dd5
0xc000a51c 0x00000000
0xc000a520 0xf11307f0
0xc000a524 0x00000000
0xc000a528 0xe831f8ef
0xc000a52c 0x00000000
0xc000a530 0xed2beae5
0xc000a534 0x00000000
0xc000a538 0xf92adbea
0xc000a53c 0x00000000
0xc000a540 0x0b25dbf5
0xc000a544 0x00000000
0xc000a548 0x091aeeee
0xc000a54c 0x00000000
0xc000a550 0x0b0401e5
0xc000a554 0x00000000
0xc000a558 0x0efc0cea
0xc000a55c 0x00000000
0xc000a560 0x0dfd0ff0
0xc000a564 0x00000000
0xc000a568 0x0dfe11ef
0xc000a56c 0x00000000
0xc000a570 0x0dfc11ef
0xc000a574 0x00000000
0xc000a578 0x0dfd11ef
0xc000a57c 0x00000000
0xc000a580 0x0dfd11ee
0xc000a584 0x00000000
0xc000a588 0x0dfd11ee
0xc000a58c 0x00000000
0xc000a590 0x0dfd11ee
0xc000a594 0x00000000
0xc000a598 0x0dfd11ee
0xc000a59c 0x00000000
0xc000a5a0 0x0cfe11f0
0xc000a5a4 0x00000000
0xc000a5a8 0x0dfe13ef
0xc000a5ac 0x00000000
0xc000a5b0 0x0bfc12f1
0xc000a5b4 0x00000000
0xc000a5b8 0x09fd16ef
0xc000a5bc 0x00000000
0xc000a5c0 0xf60327e8
0xc000a5c4 0x00000000
0xc000a5c8 0xe60518d9
0xc000a5cc 0x00000000
0xc000a5d0 0xde3003f9
0xc000a5d4 0x00000000
0xc000a5d8 0xc959eff6
0xc000a5dc 0x00000000
0xc000a5e0 0xb45dea0d
0xc000a5e4 0x00000000
0xc000a5e8 0xc55bf12a
0xc000a5ec 0x00000000
0xc000a5f0 0xc75cef3a
0xc000a5f4 0x00000000
0xc000a5f8 0xd139002b
0xc000a5fc 0x00000000
0xc000a600 0xe8181523
0xc000a604 0x00000000
0xc000a608 0xfb081316
0xc000a60c 0x00000000
0xc000a610 0x05050a01
0xc000a614 0x00000000
0xc000a618 0x09ff0df2
0xc000a61c 0x00000000
0xc000a620 0x0bfc10ee
0xc000a624 0x00000000
0xc000a628 0x0ffd10f0
0xc000a62c 0x00000000
0xc000a630 0x0cfe0fef
0xc000a634 0x00000000
0xc000a638 0x0efc11ee
0xc000a63c 0x00000000
0xc000a640 0x0dfd11ee
0xc000a644 0x00000000
0xc000a648 0x0dfd11ee
0xc000a64c 0x00000000
0xc000a650 0x0dfd11ee
0xc000a654 0x00000000
0xc000a658 0x0dfd11ee
0xc000a65c 0x00000000
0xc000a660 0x0efd13ef
0xc000a664 0x00000000
0xc000a668 0x0cfa0df0
0xc000a66c 0x00000000
0xc000a670 0xf6062dea
0xc000a674 0x00000000
0xc000a678 0xe0021ad7
0xc000a67c 0x00000000
0xc000a680 0xdd3405f9
0xc000a684 0x00000000
0xc000a688 0xcb55eafe
0xc000a68c 0x00000000
0xc000a690 0xd45bf025
0xc000a694 0x00000000
0xc000a698 0xde4df548
0xc000a69c 0x00000000
0xc000a6a0 0xc931fa4b
0xc000a6a4 0x00000000
0xc000a6a8 0xd3fffb65
0xc000a6ac 0x00000000
0xc000a6b0 0xf604fb73
0xc000a6b4 0x00000000
0xc000a6b8 0xfafee759
0xc000a6bc 0x00000000
0xc000a6c0 0x00ffeb39
0xc000a6c4 0x00000000
0xc000a6c8 0x0a03f922
0xc000a6cc 0x00000000
0xc000a6d0 0x170a080a
0xc000a6d4 0x00000000
0xc000a6d8 0x12050ef8
0xc000a6dc 0x00000000
0xc000a6e0 0x0bfe10ef
0xc000a6e4 0x00000000
0xc000a6e8 0x0dfb11f0
0xc000a6ec 0x00000000
0xc000a6f0 0x0efd11f0
0xc000a6f4 0x00000000
0xc000a6f8 0x0efc11ee
0xc000a6fc 0x00000000
0xc000a700 0x0dfd11ee
0xc000a704 0x00000000
0xc000a708 0x0dfd11ee
0xc000a70c 0x00000000
0xc000a710 0x0dfd11ee
0xc000a714 0x00000000
0xc000a718 0x0dfd11ee
0xc000a71c 0x00000000
0xc000a720 0x0bfb0ff0
0xc000a724 0x00000000
0xc000a728 0xf7042be9
0xc000a72c 0x00000000
0xc000a730 0xd31b20db
0xc000a734 0x00000000
0xc000a738 0xdd38f2fc
0xc000a73c 0x00000000
0xc000a740 0xda5afc31
0xc000a744 0x00000000
0xc000a748 0xe23ffc42
0xc000a74c 0x00000000
0xc000a750 0xc303e45b
0xc000a754 0x00000000
0xc000a758 0xc0d3e57d
0xc000a75c 0x00000000
0xc000a760 0xedc6c36f
0xc000a764 0x00000000
0xc000a768 0xe4d0a552
0xc000a76c 0x00000000
0xc000a770 0xfdc3b62a
0xc000a774 0x00000000
0xc000a778 0x14d7d00b
0xc000a77c 0x00000000
0xc000a780 0x2ee5e4e9
0xc000a784 0x00000000
0xc000a788 0x22f4f3db
0xc000a78c 0x00000000
0xc000a790 0x17f104da
0xc000a794 0x00000000
0xc000a798 0x13f610ea
0xc000a79c 0x00000000
0xc000a7a0 0x0efd0ff0
0xc000a7a4 0x00000000
0xc000a7a8 0x0dfd10ef
0xc000a7ac 0x00000000
0xc000a7b0 0x0dfb10ee
0xc000a7b4 0x00000000
0xc000a7b8 0x0ffd11ef
0xc000a7bc 0x00000000
0xc000a7c0 0x0dfd11ee
0xc000a7c4 0x00000000
0xc000a7c8 0x0dfd11ee
0xc000a7cc 0x00000000
0xc000a7d0 0x0dfd11ee
0xc000a7d4 0x00000000
0xc000a7d8 0x0dfd11ee
0xc000a7dc 0x00000000
0xc000a7e0 0x0dfb11f0
0xc000a7e4 0x00000000
0xc000a7e8 0xe6212eef
0xc000a7ec 0x00000000
0xc000a7f0 0xce2e2be8
0xc000a7f4 0x00000000
0xc000a7f8 0xdd22e92d
0xc000a7fc 0x00000000
0xc000a800 0xd71ee372
0xc000a804 0x00000000
0xc000a808 0xb7e6be70
0xc000a80c 0x00000000
0xc000a810 0xe3b29766
0xc000a814 0x00000000
0xc000a818 0xf2c1b440
0xc000a81c 0x00000000
0xc000a820 0x24b1d610
0xc000a824 0x00000000
0xc000a828 0x2ca6e4d2
0xc000a82c 0x00000000
0xc000a830 0x4294ffb5
0xc000a834 0x00000000
0xc000a838 0x44ac13ae
0xc000a83c 0x00000000
0xc000a840 0x32bc1db7
0xc000a844 0x00000000
0xc000a848 0x22c416ca
0xc000a84c 0x00000000
0xc000a850 0x22dc18e1
0xc000a854 0x00000000
0xc000a858 0x14f415ed
0xc000a85c 0x00000000
0xc000a860 0x0dfa11ef
0xc000a864 0x00000000
0xc000a868 0x0efb10ee
0xc000a86c 0x00000000
0xc000a870 0x0efc11ee
0xc000a874 0x00000000
0xc000a878 0x0efc11ed
0xc000a87c 0x00000000
0xc000a880 0x0dfd11ee
0xc000a884 0x00000000
0xc000a888 0x0dfd11ee
0xc000a88c 0x00000000
0xc000a890 0x0dfd11ee
0xc000a894 0x00000000
0xc000a898 0x0dfd11ee
0xc000a89c 0x00000000
0xc000a8a0 0x0dfd11ef
0xc000a8a4 0x00000000
0xc000a8a8 0xf12441fb
0xc000a8ac 0x00000000
0xc000a8b0 0xb610f503
0xc000a8b4 0x00000000
0xc000a8b8 0xaaf7c156
0xc000a8bc 0x00000000
0xc000a8c0 0xc7d1b17f
0xc000a8c4 0x00000000
0xc000a8c8 0xece6af4e
0xc000a8cc 0x00000000
0xc000a8d0 0x38c2d7f7
0xc000a8d4 0x00000000
0xc000a8d8 0x3ab1edc0
0xc000a8dc 0x00000000
0xc000a8e0 0x3fa712b2
0xc000a8e4 0x00000000
0xc000a8e8 0x38b425b7
0xc000a8ec 0x00000000
0xc000a8f0 0x25c41cc9
0xc000a8f4 0x00000000
0xc000a8f8 0x1fd21adb
0xc000a8fc 0x00000000
0xc000a900 0x1ce618e7
0xc000a904 0x00000000
0xc000a908 0x11f713ef
0xc000a90c 0x00000000
0xc000a910 0x0bfb12f1
0xc000a914 0x00000000
0xc000a918 0x0cfa10ee
0xc000a91c 0x00000000
0xc000a920 0x0ffd0fef
0xc000a924 0x00000000
0xc000a928 0x0ffe10ef
0xc000a92c 0x00000000
0xc000a930 0x0cfc0fec
0xc000a934 0x00000000
0xc000a938 0x0ffb12ee
0xc000a93c 0x00000000
0xc000a940 0x0dfd11ee
0xc000a944 0x00000000
0xc000a948 0x0dfd11ee
0xc000a94c 0x00000000
0xc000a950 0x0dfd11ee
0xc000a954 0x00000000
0xc000a958 0x0dfd11ee
0xc000a95c 0x00000000
0xc000a960 0x0efc12ef
0xc000a964 0x00000000
0xc000a968 0xda14250c
0xc000a96c 0x00000000
0xc000a970 0x9becdf25
0xc000a974 0x00000000
0xc000a978 0xd3cfc23e
0xc000a97c 0x00000000
0xc000a980 0x00eee066
0xc000a984 0x00000000
0xc000a988 0x1fe2c7f7
0xc000a98c 0x00000000
0xc000a990 0x45ce01bd
0xc000a994 0x00000000
0xc000a998 0x2bbe17c3
0xc000a99c 0x00000000
0xc000a9a0 0x1bd316d9
0xc000a9a4 0x00000000
0xc000a9a8 0x1feb1feb
0xc000a9ac 0x00000000
0xc000a9b0 0x0bfb0ef0
0xc000a9b4 0x00000000
0xc000a9b8 0x09fb0eee
0xc000a9bc 0x00000000
0xc000a9c0 0x0efb0df3
0xc000a9c4 0x00000000
0xc000a9c8 0x0eff0cf1
0xc000a9cc 0x00000000
0xc000a9d0 0x0bfe0fee
0xc000a9d4 0x00000000
0xc000a9d8 0x0dfc10ef
0xc000a9dc 0x00000000
0xc000a9e0 0x0bfe11f0
0xc000a9e4 0x00000000
0xc000a9e8 0x0efb13ef
0xc000a9ec 0x00000000
0xc000a9f0 0x0dfd11f0
0xc000a9f4 0x00000000
0xc000a9f8 0x0dfd11ee
0xc000a9fc 0x00000000
0xc000aa00 0x0dfd11ee
0xc000aa04 0x00000000
0xc000aa08 0x0dfd11ee
0xc000aa0c 0x00000000
0xc000aa10 0x0dfd11ee
0xc000aa14 0x00000000
0xc000aa18 0x0dfd11ee
0xc000aa1c 0x00000000
0xc000aa20 0x0bfd13ee
0xc000aa24 0x00000000
0xc000aa28 0xd5fa101e
0xc000aa2c 0x00000000
0xc000aa30 0xaceef015
0xc000aa34 0x00000000
0xc000aa38 0xecdbe22c
0xc000aa3c 0x00000000
0xc000aa40 0xf6f1dd39
0xc000aa44 0x00000000
0xc000aa48 0x1ee5d3f8
0xc000aa4c 0x00000000
0xc000aa50 0x26ec16d2
0xc000aa54 0x00000000
0xc000aa58 0xf1f420d0
0xc000aa5c 0x00000000
0xc000aa60 0xf51408ee
0xc000aa64 0x00000000
0xc000aa68 0xf427e2f5
0xc000aa6c 0x00000000
0xc000aa70 0x0a27dafb
0xc000aa74 0x00000000
0xc000aa78 0x0818f0eb
0xc000aa7c 0x00000000
0xc000aa80 0x090300e5
0xc000aa84 0x00000000
0xc000aa88 0x0ffa0eed
0xc000aa8c 0x00000000
0xc000aa90 0x0dfc10ef
0xc000aa94 0x00000000
0xc000aa98 0x0efb11f0
0xc000aa9c 0x00000000
0xc000aaa0 0x0cfb10ee
0xc000aaa4 0x00000000
0xc000aaa8 0x0dfb10f1
0xc000aaac 0x00000000
0xc000aab0 0x0efe10f0
0xc000aab4 0x00000000
0xc000aab8 0x0efd11ef
0xc000aabc 0x00000000
0xc000aac0 0x0dfd11ee
0xc000aac4 0x00000000
0xc000aac8 0x0dfd11ee
0xc000aacc 0x00000000
0xc000aad0 0x0dfd11ee
0xc000aad4 0x00000000
0xc000aad8 0x0dfd11ee
0xc000aadc 0x00000000
0xc000aae0 0x0cfe11ef
0xc000aae4 0x00000000
0xc000aae8 0xdcf80820
0xc000aaec 0x00000000
0xc000aaf0 0xb0effc1b
0xc000aaf4 0x00000000
0xc000aaf8 0xeed9f41b
0xc000aafc 0x00000000
0xc000ab00 0xe6f3f338
0xc000ab04 0x00000000
0xc000ab08 0xeef3dcdf
0xc000ab0c 0x00000000
0xc000ab10 0x0f1bf4eb
0xc000ab14 0x00000000
0xc000ab18 0xcf54e9f9
0xc000ab1c 0x00000000
0xc000ab20 0xb961f911
0xc000ab24 0x00000000
0xc000ab28 0xb64a0810
0xc000ab2c 0x00000000
0xc000ab30 0xe030ea25
0xc000ab34 0x00000000
0xc000ab38 0x0335e92b
0xc000ab3c 0x00000000
0xc000ab40 0xf71bebf5
0xc000ab44 0x00000000
0xc000ab48 0x0cfa02e8
0xc000ab4c 0x00000000
0xc000ab50 0x0ffe0df4
0xc000ab54 0x00000000
0xc000ab58 0x09fe0ef1
0xc000ab5c 0x00000000
0xc000ab60 0x0efa0fee
0xc000ab64 0x00000000
0xc000ab68 0x0efd0fef
0xc000ab6c 0x00000000
0xc000ab70 0x0efc11ed
0xc000ab74 0x00000000
0xc000ab78 0x0efc11ee
0xc000ab7c 0x00000000
0xc000ab80 0x0dfd11ee
0xc000ab84 0x00000000
0xc000ab88 0x0dfd11ee
0xc000ab8c 0x00000000
0xc000ab90 0x0dfd11ee
0xc000ab94 0x00000000
0xc000ab98 0x0dfd11ee
0xc000ab9c 0x00000000
0xc000aba0 0x0efd13ef
0xc000aba4 0x00000000
0xc000aba8 0xf1e8f423
0xc000abac 0x00000000
0xc000abb0 0xc1ee0426
0xc000abb4 0x00000000
0xc000abb8 0xd3d617f9
0xc000abbc 0x00000000
0xc000abc0 0xc4f8eb29
0xc000abc4 0x00000000
0xc000abc8 0xee26b20a
0xc000abcc 0x00000000
0xc000abd0 0x124ef32e
0xc000abd4 0x00000000
0xc000abd8 0xde390332
0xc000abdc 0x00000000
0xc000abe0 0xbb2f2648
0xc000abe4 0x00000000
0xc000abe8 0x9318fa43
0xc000abec 0x00000000
0xc000abf0 0xcd29d16a
0xc000abf4 0x00000000
0xc000abf8 0xf23eea77
0xc000abfc 0x00000000
0xc000ac00 0x0631ed21
0xc000ac04 0x00000000
0xc000ac08 0x0807f5f4
0xc000ac0c 0x00000000
0xc000ac10 0x0afa11f1
0xc000ac14 0x00000000
0xc000ac18 0x0efc12ef
0xc000ac1c 0x00000000
0xc000ac20 0x0ffd10f1
0xc000ac24 0x00000000
0xc000ac28 0x0cfc10ed
0xc000ac2c 0x00000000
0xc000ac30 0x0efa11ed
0xc000ac34 0x00000000
0xc000ac38 0x0efc12ef
0xc000ac3c 0x00000000
0xc000ac40 0x0dfd11ee
0xc000ac44 0x00000000
0xc000ac48 0x0dfd11ee
0xc000ac4c 0x00000000
0xc000ac50 0x0dfd11ee
0xc000ac54 0x00000000
0xc000ac58 0x0dfd11ee
0xc000ac5c 0x00000000
0xc000ac60 0x0bfc10ef
0xc000ac64 0x00000000
0xc000ac68 0xf8d7f119
0xc000ac6c 0x00000000
0xc000ac70 0xe5def62b
0xc000ac74 0x00000000
0xc000ac78 0xfde80202
0xc000ac7c 0x00000000
0xc000ac80 0xddf3011a
0xc000ac84 0x00000000
0xc000ac88 0x07d7f325
0xc000ac8c 0x00000000
0xc000ac90 0x09e10757
0xc000ac94 0x00000000
0xc000ac98 0xc7c9d969
0xc000ac9c 0x00000000
0xc000aca0 0xcdeee464
0xc000aca4 0x00000000
0xc000aca8 0xbb09cd36
0xc000acac 0x00000000
0xc000acb0 0xf8f9a236
0xc000acb4 0x00000000
0xc000acb8 0xf926d95a
0xc000acbc 0x00000000
0xc000acc0 0x0d14dc1a
0xc000acc4 0x00000000
0xc000acc8 0x1b0cedfc
0xc000accc 0x00000000
0xc000acd0 0x0dff10ef
0xc000acd4 0x00000000
0xc000acd8 0x0dfa0fef
0xc000acdc 0x00000000
0xc000ace0 0x0cfe11f2
0xc000ace4 0x00000000
0xc000ace8 0x0ffc12f0
0xc000acec 0x00000000
0xc000acf0 0x0dfd10ef
0xc000acf4 0x00000000
0xc000acf8 0x0efc11ee
0xc000acfc 0x00000000
0xc000ad00 0x0dfd11ee
0xc000ad04 0x00000000
0xc000ad08 0x0dfd11ee
0xc000ad0c 0x00000000
0xc000ad10 0x0dfd11ee
0xc000ad14 0x00000000
0xc000ad18 0x0dfd11ee
0xc000ad1c 0x00000000
0xc000ad20 0x0dfb10f0
0xc000ad24 0x00000000
0xc000ad28 0xf9dcf009
0xc000ad2c 0x00000000
0xc000ad30 0xfbd20a14
0xc000ad34 0x00000000
0xc000ad38 0x2dcb1dff
0xc000ad3c 0x00000000
0xc000ad40 0x0badd401
0xc000ad44 0x00000000
0xc000ad48 0xd892b114
0xc000ad4c 0x00000000
0xc000ad50 0x1288c93a
0xc000ad54 0x00000000
0xc000ad58 0x03c9c730
0xc000ad5c 0x00000000
0xc000ad60 0x12e0090e
0xc000ad64 0x00000000
0xc000ad68 0xc7c8decf
0xc000ad6c 0x00000000
0xc000ad70 0x01a7ccf9
0xc000ad74 0x00000000
0xc000ad78 0x08d8d82f
0xc000ad7c 0x00000000
0xc000ad80 0x1efdd40a
0xc000ad84 0x00000000
0xc000ad88 0x2afff6ec
0xc000ad8c 0x00000000
0xc000ad90 0x0efa11ec
0xc000ad94 0x00000000
0xc000ad98 0x0efc0cf1
0xc000ad9c 0x00000000
0xc000ada0 0x0dfd10ee
0xc000ada4 0x00000000
0xc000ada8 0x0dfb10ef
0xc000adac 0x00000000
0xc000adb0 0x0efd10ef
0xc000adb4 0x00000000
0xc000adb8 0x0efc12ee
0xc000adbc 0x00000000
0xc000adc0 0x0dfd11ee
0xc000adc4 0x00000000
0xc000adc8 0x0dfd11ee
0xc000adcc 0x00000000
0xc000add0 0x0dfd11ee
0xc000add4 0x00000000
0xc000add8 0x0dfd11ee
0xc000addc 0x00000000
0xc000ade0 0x0efd12ef
0xc000ade4 0x00000000
0xc000ade8 0x09ee03fb
0xc000adec 0x00000000
0xc000adf0 0xf7d6f007
0xc000adf4 0x00000000
0xc000adf8 0xf5db15ff
0xc000adfc 0x00000000
0xc000ae00 0xfa93da0a
0xc000ae04 0x00000000
0xc000ae08 0x10a4e5da
0xc000ae0c 0x00000000
0xc000ae10 0x5ea10bcc
0xc000ae14 0x00000000
0xc000ae18 0x24c6fcb7
0xc000ae1c 0x00000000
0xc000ae20 0x0aaf26da
0xc000ae24 0x00000000
0xc000ae28 0xc1b4fcf2
0xc000ae2c 0x00000000
0xc000ae30 0x02b8f30a
0xc000ae34 0x00000000
0xc000ae38 0x08e2e13d
0xc000ae3c 0x00000000
0xc000ae40 0x15ecc7f8
0xc000ae44 0x00000000
0xc000ae48 0x3eeb03e1
0xc000ae4c 0x00000000
0xc000ae50 0x0dfa10f2
0xc000ae54 0x00000000
0xc000ae58 0x0afd10f1
0xc000ae5c 0x00000000
0xc000ae60 0x10f912ee
0xc000ae64 0x00000000
0xc000ae68 0x0efe0ff0
0xc000ae6c 0x00000000
0xc000ae70 0x0efc11ed
0xc000ae74 0x00000000
0xc000ae78 0x0efc11ee
0xc000ae7c 0x00000000
0xc000ae80 0x0dfd11ee
0xc000ae84 0x00000000
0xc000ae88 0x0dfd11ee
0xc000ae8c 0x00000000
0xc000ae90 0x0dfd11ee
0xc000ae94 0x00000000
0xc000ae98 0x0dfd11ee
0xc000ae9c 0x00000000
0xc000aea0 0x0dfc11ef
0xc000aea4 0x00000000
0xc000aea8 0x0bfe16ee
0xc000aeac 0x00000000
0xc000aeb0 0x07e2f900
0xc000aeb4 0x00000000
0xc000aeb8 0x15e90ef4
0xc000aebc 0x00000000
0xc000aec0 0x20dc1cf2
0xc000aec4 0x00000000
0xc000aec8 0x1eda1fc2
0xc000aecc 0x00000000
0xc000aed0 0x27c221cc
0xc000aed4 0x00000000
0xc000aed8 0x19ca11cc
0xc000aedc 0x00000000
0xc000aee0 0xf1df2017
0xc000aee4 0x00000000
0xc000aee8 0xa8edf213
0xc000aeec 0x00000000
0xc000aef0 0xf3e3ed1e
0xc000aef4 0x00000000
0xc000aef8 0xf3f2d141
0xc000aefc 0x00000000
0xc000af00 0x16efc9f7
0xc000af04 0x00000000
0xc000af08 0x40ea00e2
0xc000af0c 0x00000000
0xc000af10 0x0cfa0df2
0xc000af14 0x00000000
0xc000af18 0x0ffc12ee
0xc000af1c 0x00000000
0xc000af20 0x0dfc11f0
0xc000af24 0x00000000
0xc000af28 0x0dfc10ee
0xc000af2c 0x00000000
0xc000af30 0x0ffb13ef
0xc000af34 0x00000000
0xc000af38 0x0dfd11ef
0xc000af3c 0x00000000
0xc000af40 0x0dfd11ee
0xc000af44 0x00000000
0xc000af48 0x0dfd11ee
0xc000af4c 0x00000000
0xc000af50 0x0dfd11ee
0xc000af54 0x00000000
0xc000af58 0x0dfd11ee
0xc000af5c 0x00000000
0xc000af60 0x0dfc11ef
0xc000af64 0x00000000
0xc000af68 0x09ff10f0
0xc000af6c 0x00000000
0xc000af70 0x09fe13ef
0xc000af74 0x00000000
0xc000af78 0x09fb10f1
0xc000af7c 0x00000000
0xc000af80 0x0eff12f2
0xc000af84 0x00000000
0xc000af88 0x0cfd0ff0
0xc000af8c 0x00000000
0xc000af90 0x0cfc0ef0
0xc000af94 0x00000000
0xc000af98 0xfd0428e9
0xc000af9c 0x00000000
0xc000afa0 0xc3f80410
0xc000afa4 0x00000000
0xc000afa8 0xb8fee027
0xc000afac 0x00000000
0xc000afb0 0xedfbe225
0xc000afb4 0x00000000
0xc000afb8 0xf2f1cd37
0xc000afbc 0x00000000
0xc000afc0 0x13e8d2f6
0xc000afc4 0x00000000
0xc000afc8 0x3eea01e6
0xc000afcc 0x00000000
0xc000afd0 0x0bfd0ef0
0xc000afd4 0x00000000
0xc000afd8 0x0ffa10ed
0xc000afdc 0x00000000
0xc000afe0 0x0efd0dee
0xc000afe4 0x00000000
0xc000afe8 0x0efc11ed
0xc000afec 0x00000000
0xc000aff0 0x0dfc11ee
0xc000aff4 0x00000000
0xc000aff8 0x0efd11ef
0xc000affc 0x00000000
0xc000b000 0x0dfd11ee
0xc000b004 0x00000000
0xc000b008 0x0dfd11ee
0xc000b00c 0x00000000
0xc000b010 0x0dfd11ee
0xc000b014 0x00000000
0xc000b018 0x0dfd11ee
0xc000b01c 0x00000000
0xc000b020 0x0dfd11ee
0xc000b024 0x00000000
0xc000b028 0x0efc12f1
0xc000b02c 0x00000000
0xc000b030 0x0cfd10f0
0xc000b034 0x00000000
0xc000b038 0x0afd13f0
0xc000b03c 0x00000000
0xc000b040 0x08fa0cf3
0xc000b044 0x00000000
0xc000b048 0x0fff11f4
0xc000b04c 0x00000000
0xc000b050 0x0cfd10f0
0xc000b054 0x00000000
0xc000b058 0xea1b2af0
0xc000b05c 0x00000000
0xc000b060 0xb505ff09
0xc000b064 0x00000000
0xc000b068 0xbefcce4a
0xc000b06c 0x00000000
0xc000b070 0xf808fa4a
0xc000b074 0x00000000
0xc000b078 0xe2ded023
0xc000b07c 0x00000000
0xc000b080 0x1ed9d6fa
0xc000b084 0x00000000
0xc000b088 0x3cef0cee
0xc000b08c 0x00000000
0xc000b090 0x0bfd11ef
0xc000b094 0x00000000
0xc000b098 0x0efc12f0
0xc000b09c 0x00000000
0xc000b0a0 0x0bfc10ef
0xc000b0a4 0x00000000
0xc000b0a8 0x0ffb12ee
0xc000b0ac 0x00000000
0xc000b0b0 0x0dfd11ee
0xc000b0b4 0x00000000
0xc000b0b8 0x0efc11ee
0xc000b0bc 0x00000000
0xc000b0c0 0x0dfd11ee
0xc000b0c4 0x00000000
0xc000b0c8 0x0dfd11ee
0xc000b0cc 0x00000000
0xc000b0d0 0x0dfd11ee
0xc000b0d4 0x00000000
0xc000b0d8 0x0dfd11ee
0xc000b0dc 0x00000000
0xc000b0e0 0x0dfd13ee
0xc000b0e4 0x00000000
0xc000b0e8 0x09fa0def
0xc000b0ec 0x00000000
0xc000b0f0 0x0bfd11f3
0xc000b0f4 0x00000000
0xc000b0f8 0x0efb0cf0
0xc000b0fc 0x00000000
0xc000b100 0x09ff0ff1
0xc000b104 0x00000000
0xc000b108 0x0cf910ee
0xc000b10c 0x00000000
0xc000b110 0x0cff10f1
0xc000b114 0x00000000
0xc000b118 0xed2339fb
0xc000b11c 0x00000000
0xc000b120 0xb3ffe611
0xc000b124 0x00000000
0xc000b128 0xb9e5c756
0xc000b12c 0x00000000
0xc000b130 0xfeedf361
0xc000b134 0x00000000
0xc000b138 0x03f0c21b
0xc000b13c 0x00000000
0xc000b140 0x1fd2cee0
0xc000b144 0x00000000
0xc000b148 0x43e517e2
0xc000b14c 0x00000000
0xc000b150 0x0efe10f1
0xc000b154 0x00000000
0xc000b158 0x0afc0ef1
0xc000b15c 0x00000000
0xc000b160 0x0ffe11ef
0xc000b164 0x00000000
0xc000b168 0x0dfc11f0
0xc000b16c 0x00000000
0xc000b170 0x0dfd11ee
0xc000b174 0x00000000
0xc000b178 0x0efc12ee
0xc000b17c 0x00000000
0xc000b180 0x0dfd11ee
0xc000b184 0x00000000
0xc000b188 0x0dfd11ee
0xc000b18c 0x00000000
0xc000b190 0x0dfd11ee
0xc000b194 0x00000000
0xc000b198 0x0dfd11ee
0xc000b19c 0x00000000
0xc000b1a0 0x070018ed
0xc000b1a4 0x00000000
0xc000b1a8 0x06f90bec
0xc000b1ac 0x00000000
0xc000b1b0 0x11010df6
0xc000b1b4 0x00000000
0xc000b1b8 0x0a010ff3
0xc000b1bc 0x00000000
0xc000b1c0 0x0af80de8
0xc000b1c4 0x00000000
0xc000b1c8 0x0bfb10ee
0xc000b1cc 0x00000000
0xc000b1d0 0xfb0725ec
0xc000b1d4 0x00000000
0xc000b1d8 0xc9191ff9
0xc000b1dc 0x00000000
0xc000b1e0 0xb0ffc53c
0xc000b1e4 0x00000000
0xc000b1e8 0xbde9a94c
0xc000b1ec 0x00000000
0xc000b1f0 0xfbfaf34e
0xc000b1f4 0x00000000
0xc000b1f8 0x1ee3c1fb
0xc000b1fc 0x00000000
0xc000b200 0x29dddccc
0xc000b204 0x00000000
0xc000b208 0x32d51dd7
0xc000b20c 0x00000000
0xc000b210 0x0ffb0ff1
0xc000b214 0x00000000
0xc000b218 0x0cfe10f1
0xc000b21c 0x00000000
0xc000b220 0x0efb0fee
0xc000b224 0x00000000
0xc000b228 0x0dfd10ef
0xc000b22c 0x00000000
0xc000b230 0x0efc12ee
0xc000b234 0x00000000
0xc000b238 0x0dfd11ee
0xc000b23c 0x00000000
0xc000b240 0x0dfd11ee
0xc000b244 0x00000000
0xc000b248 0x0dfd11ee
0xc000b24c 0x00000000
0xc000b250 0x0dfd11ee
0xc000b254 0x00000000
0xc000b258 0x0dfd11ee
0xc000b25c 0x00000000
0xc000b260 0xfb0a25ec
0xc000b264 0x00000000
0xc000b268 0xe70721d9
0xc000b26c 0x00000000
0xc000b270 0xf20a02f3
0xc000b274 0x00000000
0xc000b278 0x0920ed06
0xc000b27c 0x00000000
0xc000b280 0xff27f9f7
0xc000b284 0x00000000
0xc000b288 0xeb0f0fd2
0xc000b28c 0x00000000
0xc000b290 0xd9210fe7
0xc000b294 0x00000000
0xc000b298 0xbc28e124
0xc000b29c 0x00000000
0xc000b2a0 0xab18b353
0xc000b2a4 0x00000000
0xc000b2a8 0xf6efd753
0xc000b2ac 0x00000000
0xc000b2b0 0xece8e31d
0xc000b2b4 0x00000000
0xc000b2b8 0x28ccdff5
0xc000b2bc 0x00000000
0xc000b2c0 0x36d6ffd7
0xc000b2c4 0x00000000
0xc000b2c8 0x23e71de8
0xc000b2cc 0x00000000
0xc000b2d0 0x0dfa12ef
0xc000b2d4 0x00000000
0xc000b2d8 0x0bf90fed
0xc000b2dc 0x00000000
0xc000b2e0 0x11fc11f0
0xc000b2e4 0x00000000
0xc000b2e8 0x0dfd10ee
0xc000b2ec 0x00000000
0xc000b2f0 0x0efb11ee
0xc000b2f4 0x00000000
0xc000b2f8 0x0efd11ee
0xc000b2fc 0x00000000
0xc000b300 0x0dfd11ee
0xc000b304 0x00000000
0xc000b308 0x0dfd11ee
0xc000b30c 0x00000000
0xc000b310 0x0dfd11ee
0xc000b314 0x00000000
0xc000b318 0x0dfd11ee
0xc000b31c 0x00000000
0xc000b320 0x020f16f9
0xc000b324 0x00000000
0xc000b328 0xe32213f7
0xc000b32c 0x00000000
0xc000b330 0xc12427fa
0xc000b334 0x00000000
0xc000b338 0xc91a2214
0xc000b33c 0x00000000
0xc000b340 0xda410c23
0xc000b344 0x00000000
0xc000b348 0xc455e60a
0xc000b34c 0x00000000
0xc000b350 0xc55bf00b
0xc000b354 0x00000000
0xc000b358 0xb824ad5d
0xc000b35c 0x00000000
0xc000b360 0xbe04cb74
0xc000b364 0x00000000
0xc000b368 0xedd1f64a
0xc000b36c 0x00000000
0xc000b370 0x11d2d11a
0xc000b374 0x00000000
0xc000b378 0x24d3dae8
0xc000b37c 0x00000000
0xc000b380 0x43e218e1
0xc000b384 0x00000000
0xc000b388 0x0cf810ef
0xc000b38c 0x00000000
0xc000b390 0x11fa11ef
0xc000b394 0x00000000
0xc000b398 0x0cfe10ef
0xc000b39c 0x00000000
0xc000b3a0 0x0dfb11ee
0xc000b3a4 0x00000000
0xc000b3a8 0x0efc12ef
0xc000b3ac 0x00000000
0xc000b3b0 0x0dfd11ef
0xc000b3b4 0x00000000
0xc000b3b8 0x0efc11ee
0xc000b3bc 0x00000000
0xc000b3c0 0x0dfd11ee
0xc000b3c4 0x00000000
0xc000b3c8 0x0dfd11ee
0xc000b3cc 0x00000000
0xc000b3d0 0x0dfd11ee
0xc000b3d4 0x00000000
0xc000b3d8 0x0dfd11ee
0xc000b3dc 0x00000000
0xc000b3e0 0x0ff917fb
0xc000b3e4 0x00000000
0xc000b3e8 0x0b001209
0xc000b3ec 0x00000000
0xc000b3f0 0xf509f910
0xc000b3f4 0x00000000
0xc000b3f8 0xc618f32b
0xc000b3fc 0x00000000
0xc000b400 0xd3251050
0xc000b404 0x00000000
0xc000b408 0xe23d1b63
0xc000b40c 0x00000000
0xc000b410 0xc91dfa67
0xc000b414 0x00000000
0xc000b418 0xa9d1d87f
0xc000b41c 0x00000000
0xc000b420 0xdba9cb78
0xc000b424 0x00000000
0xc000b428 0x16e3f937
0xc000b42c 0x00000000
0xc000b430 0x2cc5ceea
0xc000b434 0x00000000
0xc000b438 0x33d9f5c8
0xc000b43c 0x00000000
0xc000b440 0x35d21dd5
0xc000b444 0x00000000
0xc000b448 0x0efd11ee
0xc000b44c 0x00000000
0xc000b450 0x0ffb12ee
0xc000b454 0x00000000
0xc000b458 0x0df90fed
0xc000b45c 0x00000000
0xc000b460 0x0ffb12ee
0xc000b464 0x00000000
0xc000b468 0x0dfb11ef
0xc000b46c 0x00000000
0xc000b470 0x0efd11ef
0xc000b474 0x00000000
0xc000b478 0x0efc12ee
0xc000b47c 0x00000000
0xc000b480 0x0dfd11ee
0xc000b484 0x00000000
0xc000b488 0x0dfd11ee
0xc000b48c 0x00000000
0xc000b490 0x0dfd11ee
0xc000b494 0x00000000
0xc000b498 0x0dfd11ee
0xc000b49c 0x00000000
0xc000b4a0 0xfbecfbff
0xc000b4a4 0x00000000
0xc000b4a8 0xefe6050a
0xc000b4ac 0x00000000
0xc000b4b0 0x0ed10312
0xc000b4b4 0x00000000
0xc000b4b8 0x17d4e805
0xc000b4bc 0x00000000
0xc000b4c0 0x0fcad614
0xc000b4c4 0x00000000
0xc000b4c8 0xf6c9ce37
0xc000b4cc 0x00000000
0xc000b4d0 0xefaeb662
0xc000b4d4 0x00000000
0xc000b4d8 0xf1adb049
0xc000b4dc 0x00000000
0xc000b4e0 0x22bce722
0xc000b4e4 0x00000000
0xc000b4e8 0x44c6edce
0xc000b4ec 0x00000000
0xc000b4f0 0x39cdfec3
0xc000b4f4 0x00000000
0xc000b4f8 0x2ebd11b9
0xc000b4fc 0x00000000
0xc000b500 0x24e820e8
0xc000b504 0x00000000
0xc000b508 0x0dfb11ed
0xc000b50c 0x00000000
0xc000b510 0x0dfb11ee
0xc000b514 0x00000000
0xc000b518 0x0dfb12ef
0xc000b51c 0x00000000
0xc000b520 0x0efb11ee
0xc000b524 0x00000000
0xc000b528 0x0efc11ee
0xc000b52c 0x00000000
0xc000b530 0x0efc11ee
0xc000b534 0x00000000
0xc000b538 0x0efc11ee
0xc000b53c 0x00000000
0xc000b540 0x0dfd11ee
0xc000b544 0x00000000
0xc000b548 0x0dfd11ee
0xc000b54c 0x00000000
0xc000b550 0x0dfd11ee
0xc000b554 0x00000000
0xc000b558 0x0dfd11ee
0xc000b55c 0x00000000
0xc000b560 0x09ed03fc
0xc000b564 0x00000000
0xc000b568 0x04defefe
0xc000b56c 0x00000000
0xc000b570 0xfed40bff
0xc000b574 0x00000000
0xc000b578 0xf7b8fcf1
0xc000b57c 0x00000000
0xc000b580 0xfe94d6ef
0xc000b584 0x00000000
0xc000b588 0x0d8fd0f3
0xc000b58c 0x00000000
0xc000b590 0x229ee8eb
0xc000b594 0x00000000
0xc000b598 0x31a5f1d0
0xc000b59c 0x00000000
0xc000b5a0 0x41b60aa3
0xc000b5a4 0x00000000
0xc000b5a8 0x35b50bb5
0xc000b5ac 0x00000000
0xc000b5b0 0x28c00fbc
0xc000b5b4 0x00000000
0xc000b5b8 0x27e421e7
0xc000b5bc 0x00000000
0xc000b5c0 0x0dfc11ee
0xc000b5c4 0x00000000
0xc000b5c8 0x0efc12ee
0xc000b5cc 0x00000000
0xc000b5d0 0x0dfc11ef
0xc000b5d4 0x00000000
0xc000b5d8 0x0efc12ee
0xc000b5dc 0x00000000
0xc000b5e0 0x0efc12ee
0xc000b5e4 0x00000000
0xc000b5e8 0x0dfc11ed
0xc000b5ec 0x00000000
0xc000b5f0 0x0efc12ee
0xc000b5f4 0x00000000
0xc000b5f8 0x0efc12ee
0xc000b5fc 0x00000000
0xc000c000 0xfdf7fff2
0xc000c004 0xf4f10102
0xc000c008 0xfdf7fff2
0xc000c00c 0xf4f10102
0xc000c010 0xfef9fff5
0xc000c014 0xf6f30003
0xc0108000 0xdec53aea
0xc0108004 0x3524da3c
0xc000c018 0xfef900f6
0xc000c01c 0xf6f30404
0xc0108008 0x191d130c
0xc010800c 0xcafff823
0xc000c020 0xfff900f5
0xc000c024 0xf7f20304
0xc0108010 0xdf2af0f0
0xc0108014 0xe4e30fe9
0xc000c028 0x082300ff
0xc000c02c 0x031c0029
0xc0108018 0x38f02fbd
0xc010801c 0x0ff42bcb
0xc000c030 0x082d01fa
0xc000c034 0x1d200f52
0xc0108020 0xecd412cd
0xc0108024 0x0dc63804
0xc000c038 0xfd3701f5
0xc000c03c 0x29220d55
0xc0108028 0x30c1e0be
0xc010802c 0xb80d0539
0xc000c040 0xfe1209f3
0xc000c044 0x23011737
0xc0108030 0x363535f0
0xc0108034 0xf9fbc5cc
0xc000c048 0xfd0801f4
0xc000c04c 0x0bfb010d
0xc0108038 0xdfc0e1db
0xc010803c 0xf9c73821
0xc000c050 0xfef800f3
0xc000c054 0xf5f10203
0xc0108040 0xce24f7cb
0xc0108044 0xf9cbe0d8
0xc000c058 0xfef700f3
0xc000c05c 0xf5f10103
0xc0108048 0x31e5d9fb
0xc010804c 0xf221344a
0xc000c480 0xedeffaf9
0xc000c484 0xf8ebf30f
0xc0108050 0xf131182f
0xc0108054 0x131f140d
0xc000c488 0xedeffaf9
0xc000c48c 0xf8ebf30f
0xc0108058 0xf218c0d6
0xc010805c 0x17e4e8bf
0xc000c490 0xf0f1fafa
0xc000c494 0xfaedf513
0xc0108060 0x2be409ce
0xc0108064 0x2efd2bff
0xc000c498 0xf0f1fbfb
0xc000c49c 0xf9eef40f
0xc0108068 0xecf3fbda
0xc010806c 0x2db01d0b
0xc000c4a0 0xf0f2fbf8
0xc000c4a4 0xfbeef40f
0xc0108070 0xbee21dca
0xc0108074 0xdc2913bb
0xc000c4a8 0xf40510f9
0xc000c4ac 0xf910fb25
0xc0108078 0xc8200321
0xc010807c 0xf4f542d0
0xc000c4b0 0xee0f0104
0xc000c4b4 0x000ef426
0xc0108080 0x22ddf7e3
0xc0108084 0xfb04f8c9
0xc000c4b8 0xeefefaf8
0xc000c4bc 0x1e16f328
0xc0108088 0xddf23be2
0xc010808c 0xd3c4eefb
0xc000c4c0 0xefeffbf8
0xc000c4c4 0x1dfcf323
0xc0108090 0xded8df1d
0xc0108094 0x00dee61f
0xc000c4c8 0xeef3faf8
0xc000c4cc 0x0df7f319
0xc0108098 0xcdead0fa
0xc010809c 0x0bdcf6d1
0xc000c4d0 0xeef0fbf9
0xc000c4d4 0xf9ecf20f
0xc01080a0 0x2ee615bf
0xc01080a4 0x1ac7fcf7
0xc000c4d8 0xedf0faf9
0xc000c4dc 0xfaebf30f
0xc01080a8 0xe5f634d5
0xc01080ac 0x111d043e
0xc000c900 0x0dfd11ee
0xc000c904 0x00000000
0xc01080b0 0x270ccc2f
0xc01080b4 0xc4ded3e4
0xc000c908 0x0dfd11ee
0xc000c90c 0x00000000
0xc01080b8 0x0bd31d16
0xc01080bc 0x110df2d7
0xc000c910 0x0efd13ef
0xc000c914 0x00000000
0xc01080c0 0xdbf1e121
0xc01080c4 0xe7f9d740
0xc000c918 0x0d0111f2
0xc000c91c 0x00000000
0xc01080c8 0x0b0d03f8
0xc01080cc 0xf3fb2b43
0xc000c920 0x0dfe12f2
0xc000c924 0x00000000
0xc01080d0 0x26ccfcdf
0xc01080d4 0x36cb3cc2
0xc000c928 0x0b0529f0
0xc000c92c 0x00000000
0xc01080d8 0xfbef3af0
0xc01080dc 0x152f2ac5
0xc000c930 0x0f3112f0
0xc000c934 0x00000000
0xc01080e0 0xcdf32ebc
0xc01080e4 0xd10af413
0xc000c938 0x0d2b10f0
0xc000c93c 0x00000000
0xc01080e8 0xd0f1eafa
0xc01080ec 0xc111090c
0xc000c940 0x0e2511f5
0xc000c944 0x00000000
0xc01080f0 0x3efd1105
0xc01080f4 0xf70cf2e0
0xc000c948 0x0e0412ef
0xc000c94c 0x00000000
0xc01080f8 0xf22acfc6
0xc01080fc 0xec18d3e7
0xc000c950 0x0dfe11f0
0xc000c954 0x00000000
0xc0108100 0xfb3a0ec1
0xc0108104 0x16cbebd8
0xc000c958 0x0dfd11ef
0xc000c95c 0x00000000
0xc0108108 0x0124331a
0xc010810c 0x0cee2711
0xc000c060 0xfdf7fff2
0xc000c064 0xf4f10102
0xc0108110 0xbdb1bbe2
0xc0108114 0xdeb7d506
0xc000c068 0xfdf7fff2
0xc000c06c 0xf4f10102
0xc0108118 0xe5c6f3ba
0xc010811c 0x33f6f4bc
0xc000c070 0xfcf800f4
0xc000c074 0xf5f50203
0xc0108120 0xd0c11228
0xc0108124 0x2f2b3ffa
0xc000c078 0x062c0103
0xc000c07c 0x001c0125
0xc0108128 0xeee6b9d4
0xc010812c 0xd422bcb6
0xc000c080 0x0959fc14
0xc000c084 0x171c2e43
0xc0108130 0xd544213b
0xc0108134 0xeb002612
0xc000c088 0xf9641a28
0xc000c08c 0x1e2f3f4c
0xc0108138 0x00e1e1d3
0xc010813c 0x33f60d39
0xc000c090 0xf667163e
0xc000c094 0x18284760
0xc0108140 0xf828de3d
0xc0108144 0x050d0e12
0xc000c098 0x05433441
0xc000c09c 0x281a463f
0xc0108148 0x2801fdeb
0xc010814c 0xd22d43d8
0xc000c0a0 0x09142d17
0xc000c0a4 0x17081626
0xc0108150 0xd3c5d123
0xc0108154 0xcf0d31cd
0xc000c0a8 0x0b091704
0xc000c0ac 0x0bfd010e
0xc0108158 0xce0c10ef
0xc010815c 0xf3c2c8e2
0xc000c0b0 0xfff900f4
0xc000c0b4 0xf6f10204
0xc0108160 0xe6c3e5bc
0xc0108164 0x1be20ee0
0xc000c0b8 0xfff801f3
0xc000c0bc 0xf6f20103
0xc0108168 0xe7fe1ce7
0xc010816c 0xc5fef538
0xc000c4e0 0xedeffaf9
0xc000c4e4 0xf8ebf30f
0xc0108170 0x0d011efa
0xc0108174 0x0a2df545
0xc000c4e8 0xedeffaf9
0xc000c4ec 0xf8ebf30f
0xc0108178 0x100f31b8
0xc010817c 0xe0320e06
0xc000c4f0 0xf0f1f9fb
0xc000c4f4 0xfaedf411
0xc0108180 0xf905d4fa
0xc0108184 0xddc6dc3a
0xc000c4f8 0xf6060efb
0xc000c4fc 0xf512fc23
0xc0108188 0xdd00d6ca
0xc010818c 0xc9172a33
0xc000c500 0xf2050d06
0xc000c504 0x2023fa21
0xc0108190 0x172e2e27
0xc0108194 0xdf223137
0xc000c508 0x1100e706
0xc000c50c 0x1e2dd819
0xc0108198 0xcdf701de
0xc010819c 0xeb3cdfce
0xc000c510 0x412405ce
0xc000c514 0x3d2fe1f8
0xc01081a0 0x44081422
0xc01081a4 0xc3d312df
0xc000c518 0x482b1008
0xc000c51c 0x440119dd
0xc01081a8 0x2afcdc19
0xc01081ac 0xd00ce1f2
0xc000c520 0x15132011
0xc000c524 0x19fc15e6
0xc01081b0 0xd5152ebe
0xc01081b4 0x2bc335ce
0xc000c528 0xfdfc0d06
0xc000c52c 0x09ebfb0b
0xc01081b8 0x3fda22ff
0xc01081bc 0xfb033ab9
0xc000c530 0xeff1fcf9
0xc000c534 0xfaedf30e
0xc01081c0 0x0bfced51
0xc01081c4 0xc301d44d
0xc000c538 0xeef1fbf8
0xc000c53c 0xfaecf30f
0xc01081c8 0xf5250e05
0xc01081cc 0xfc0ed1e6
0xc000c960 0x0dfd11ee
0xc000c964 0x00000000
0xc01081d0 0xda2824c9
0xc01081d4 0xd5d5df39
0xc000c968 0x0dfd11ee
0xc000c96c 0x00000000
0xc01081d8 0x09e42730
0xc01081dc 0xc5d8f3fe
0xc000c970 0x0efe13f0
0xc000c974 0x00000000
0xc01081e0 0x4019bdbe
0xc01081e4 0xd104f1f3
0xc000c978 0x0b062df1
0xc000c97c 0x00000000
0xc01081e8 0x111ae8f9
0xc01081ec 0xc2e100f4
0xc000c980 0xf65527fe
0xc000c984 0x00000000
0xc01081f0 0x03eee6d2
0xc01081f4 0x181bcd18
0xc000c988 0xde5b0348
0xc000c98c 0x00000000
0xc01081f8 0x17dafee4
0xc01081fc 0xfe1e1d0d
0xc000c990 0xd35dfb65
0xc000c994 0x00000000
0xc0108200 0x2507ec28
0xc0108204 0xf74b3d3b
0xc000c998 0xfa5c0073
0xc000c99c 0x00000000
0xc0108208 0xdd20f7e2
0xc010820c 0x09cefbfa
0xc000c9a0 0x0a181539
0xc000c9a4 0x00000000
0xc0108210 0xe1c333c8
0xc0108214 0x4205faf4
0xc000c9a8 0x170a0e0a
0xc000c9ac 0x00000000
0xc0108218 0x3cf315b4
0xc010821c 0xd11d2b06
0xc000c9b0 0x0ffe11f0
0xc000c9b4 0x00000000
0xc0108220 0xece9ca19
0xc0108224 0xeedcff41
0xc000c9b8 0x0efe11f0
0xc000c9bc 0x00000000
0xc0108228 0xf723e429
0xc010822c 0x300320c5
0xc000c0c0 0xfdf7fff2
0xc000c0c4 0xf4f10102
0xc0108230 0x1112d92c
0xc0108234 0xbe0b19e2
0xc000c0c8 0xfdf7fff2
0xc000c0cc 0xf4f10102
0xc0108238 0x260fe2d0
0xc010823c 0xf9dae9ff
0xc000c0d0 0xfd24ff0c
0xc000c0d4 0xfe060808
0xc0108240 0x0e3a1806
0xc0108244 0xd610d927
0xc000c0d8 0xfb3eed25
0xc000c0dc 0x09341c52
0xc0108248 0x2133381d
0xc010824c 0xd90c20f9
0xc000c0e0 0xe02b1e52
0xc000c0e4 0x3b31484d
0xc0108250 0x26ff2ef4
0xc0108254 0x310ecbba
0xc000c0e8 0xe5040e5c
0xc000c0ec 0x373bef20
0xc0108258 0xd8f71ef4
0xc010825c 0xc4c7deca
0xc000c0f0 0xf7030b6b
0xc000c0f4 0x3128cad6
0xc0108260 0x06cbe528
0xc0108264 0xf0e32fce
0xc000c0f8 0x24173235
0xc000c0fc 0x20e4d0b9
0xc0108268 0xfbcc2cf3
0xc010826c 0x2d310ee6
0xc000c100 0x30153503
0xc000c104 0x06e5e8fb
0xc0108270 0xc31604c8
0xc0108274 0xed39c92c
0xc000c108 0x1c030ef4
0xc000c10c 0x00f5fd0c
0xc0108278 0x1d13ced7
0xc010827c 0x16fed030
0xc000c110 0xfff801f5
0xc000c114 0xf7f30003
0xc0108280 0xe5b70c1a
0xc0108284 0x13b1c6d4
0xc000c118 0xfef801f3
0xc000c11c 0xf6f20003
0xc0108288 0x3e04d4e8
0xc010828c 0x35011b02
0xc000c540 0xedeffaf9
0xc000c544 0xf8ebf30f
0xc0108290 0x15d7e4e0
0xc0108294 0xf1d91ffa
0xc000c548 0xedeffaf9
0xc000c54c 0xf8ebf30f
0xc0108298 0x07dfdbbf
0xc010829c 0x39063b28
0xc000c550 0x0106faf9
0xc000c554 0xfb0a0627
0xc01082a0 0x4ac809e2
0xc01082a4 0x05ceed01
0xc000c558 0x1300fafe
0xc000c55c 0x1b1ef707
0xc01082a8 0x39231939
0xc01082ac 0xced51a13
0xc000c560 0x4721e8eb
0xc000c564 0x060bdaeb
0xc01082b0 0xd51228ce
0xc01082b4 0xe42416cd
0xc000c568 0x69370738
0xc000c56c 0x060c55ce
0xc01082b8 0xdde8002c
0xc01082bc 0xd61410dc
0xc000c570 0x5c30123d
0xc000c574 0x032865fa
0xc01082c0 0xc4d409db
0xc01082c4 0xd9d5be25
0xc000c578 0x5a0c2529
0xc000c57c 0x132943f3
0xc01082c8 0x13b536e7
0xc01082cc 0xebbc3404
0xc000c580 0x23f51d09
0xc000c584 0x181619f5
0xc01082d0 0x2308c039
0xc01082d4 0x15deeac2
0xc000c588 0x08f216f3
0xc000c58c 0xfff3f007
0xc01082d8 0x2edde123
0xc01082dc 0xe135e6f5
0xc000c590 0xf0f0fcfa
0xc000c594 0xfaeef60f
0xc01082e0 0xe4252c15
0xc01082e4 0xbc20f21b
0xc000c598 0xeff0fcf9
0xc000c59c 0xfaecf30e
0xc01082e8 0xc519182e
0xc01082ec 0xd434422f
0xc000c9c0 0x0dfd11ee
0xc000c9c4 0x00000000
0xc01082f0 0xfcc837e3
0xc01082f4 0x12c3d801
0xc000c9c8 0x0dfd11ee
0xc000c9cc 0x00000000
0xc01082f8 0x0a1cf0f5
0xc01082fc 0xcfcdfa44
0xc000c9d0 0x0d212ef0
0xc000c9d4 0x00000000
0xc0108300 0xe8e4201e
0xc0108304 0xdecabfe6
0xc000c9d8 0xdd382b2d
0xc000c9dc 0x00000000
0xc0108308 0xe2bec8d0
0xc010830c 0xbce631ec
0xc000c9e0 0xe25afc72
0xc000c9e4 0x00000000
0xc0108310 0x2f0b1452
0xc0108314 0xe150e2e7
0xc000c9e8 0xf203e57d
0xc000c9ec 0x00000000
0xc0108318 0x0bc12ee8
0xc010831c 0x17d7e8bf
0xc000c9f0 0x2cd0e46f
0xc000c9f4 0x00000000
0xc0108320 0xc51db642
0xc0108324 0xdc2606e6
0xc000c9f8 0x44d7132a
0xc000c9fc 0x00000000
0xc0108328 0xe3362410
0xc010832c 0xf2f8f540
0xc000ca00 0x32f41de9
0xc000ca04 0x00000000
0xc0108330 0x2e1a0bef
0xc0108334 0xfb0a06e2
0xc000ca08 0x22f618ed
0xc000ca0c 0x00000000
0xc0108338 0x38fa2d21
0xc010833c 0xdd260935
0xc000ca10 0x0efd11f0
0xc000ca14 0x00000000
0xc0108340 0xd02617f6
0xc0108344 0xdb1ad8df
0xc000ca18 0x0ffd11ef
0xc000ca1c 0x00000000
0xc0108348 0x02f6ed0d
0xc010834c 0xebf4edc8
0xc000c120 0xfdf7fff2
0xc000c124 0xf4f10102
0xc0108350 0x2a33f8d3
0xc0108354 0xf9cf1b4d
0xc000c128 0xfdf7fff2
0xc000c12c 0xf4f10102
0xc0108358 0x020df7f6
0xc010835c 0xfff334c1
0xc000c130 0xfd12ff23
0xc000c134 0xf9300402
0xc0108360 0x1f25d741
0xc0108364 0x23323a30
0xc000c138 0xf24ae642
0xc000c13c 0x096f013e
0xc0108368 0xdcebf5d2
0xc010836c 0xe2f42f3b
0xc000c140 0xf9f64467
0xc000c144 0x601426f3
0xc0108370 0xede2fcf5
0xc0108374 0xf23bd919
0xc000c148 0x35f53619
0xc000c14c 0x3701dfef
0xc0108378 0xd7d3e52a
0xc010837c 0xd131e936
0xc000c150 0x32f939ed
0xc000c154 0x03f8fb0a
0xc0108380 0xf130e73e
0xc0108384 0xc5bdbddf
0xc000c158 0x29fb20f4
0xc000c15c 0x03f6fc06
0xc0108388 0xe007c937
0xc010838c 0x16b8d403
0xc000c160 0x16fb0bf6
0xc000c164 0xfef5020b
0xc0108390 0x135d0e1a
0xc0108394 0x3149243f
0xc000c168 0x00fb01f5
0xc000c16c 0xf8f20003
0xc0108398 0xcc32bdd0
0xc010839c 0xe1142822
0xc000c170 0x00f802f3
0xc000c174 0xf7f10204
0xc01083a0 0xd03323fa
0xc01083a4 0x2fe0e4d8
0xc000c178 0xfff801f3
0xc000c17c 0xf6f10003
0xc01083a8 0xbd3e3a1a
0xc01083ac 0x2fe2df30
0xc000c5a0 0xedeffaf9
0xc000c5a4 0xf8ebf30f
0xc01083b0 0x03e8e42e
0xc01083b4 0xd4031800
0xc000c5a8 0xedeffaf9
0xc000c5ac 0xf8ebf30f
0xc01083b8 0xf5e7dd2c
0xc01083bc 0xd11be32a
0xc000c5b0 0x270af9f9
0xc000c5b4 0xf9f80d0f
0xc01083c0 0xcc36fbb1
0xc01083c4 0xf1cde616
0xc000c5b8 0x5129f312
0xc000c5bc 0xc82d151b
0xc01083c8 0xf6593eb5
0xc01083cc 0x30c6ed17
0xc000c5c0 0x2a2d0c1e
0xc000c5c4 0x5b3420d2
0xc01083d0 0x0ae013b5
0xc01083d4 0xfaf21421
0xc000c5c8 0x19092517
0xc000c5cc 0x32255aff
0xc01083d8 0x091d273b
0xc01083dc 0x120ff9e7
0xc000c5d0 0xebfd1ae6
0xc000c5d4 0xfd152400
0xc01083e0 0x2f2c13cb
0xc01083e4 0xbafc1e2a
0xc000c5d8 0xf1f724fa
0xc000c5dc 0x09110b12
0xc01083e8 0xbdfa1725
0xc01083ec 0xfe2ac9d8
0xc000c5e0 0xeff20cfa
0xc000c5e4 0xfdf1f411
0xc01083f0 0x3ac61abc
0xc01083f4 0xf1f20829
0xc000c5e8 0xf0f2fbf9
0xc000c5ec 0xfceff50e
0xc01083f8 0xb509fa44
0xc01083fc 0xbe1121ed
0xc000c5f0 0xeef0fcfa
0xc000c5f4 0xfaedf210
0xc0108400 0x21be31ca
0xc0108404 0xbcea08e6
0xc000c5f8 0xedf0fcf8
0xc000c5fc 0xfaedf310
0xc0108408 0x093d37e5
0xc010840c 0x14cef510
0xc000ca20 0x0dfd11ee
0xc000ca24 0x00000000
0xc0108410 0x2b10c8f1
0xc0108414 0x03bd0205
0xc000ca28 0x0dfd11ee
0xc000ca2c 0x00000000
0xc0108418 0xcd0ec7c9
0xc010841c 0xf134c7ec
0xc000ca30 0x0e24410c
0xc000ca34 0x00000000
0xc0108420 0x2cf22bc7
0xc0108424 0xc3343010
0xc000ca38 0xd310f556
0xc000ca3c 0x00000000
0xc0108428 0x19202815
0xc010842c 0xf2f43930
0xc000ca40 0x1feee07f
0xc000ca44 0x00000000
0xc0108430 0xd4ed3ecf
0xc0108434 0xf5e0ef36
0xc000ca48 0x45ce17f7
0xc000ca4c 0x00000000
0xc0108438 0xf52bf6e4
0xc010843c 0xd7e4e9d3
0xc000ca50 0x3feb25eb
0xc000ca54 0x00000000
0xc0108440 0xe5cf0504
0xc0108444 0xe2cdeceb
0xc000ca58 0x25fb1cf0
0xc000ca5c 0x00000000
0xc0108448 0xb8cfc4b4
0xc010844c 0x04c010e9
0xc000ca60 0x1cff18f3
0xc000ca64 0x00000000
0xc0108450 0xb7d3d73e
0xc0108454 0x152ba5c8
0xc000ca68 0x0dfe12f1
0xc000ca6c 0x00000000
0xc0108458 0x051d34d0
0xc010845c 0x0518c4df
0xc000ca70 0x0ffe13f0
0xc000ca74 0x00000000
0xc0108460 0xeaebcdf8
0xc0108464 0xd449e3f3
0xc000ca78 0x0ffd12f0
0xc000ca7c 0x00000000
0xc0108468 0xda333418
0xc010846c 0x2ed03ff3
0xc000c180 0xfdf7fff2
0xc000c184 0xf4f10102
0xc0108470 0x1b0fcbc4
0xc0108474 0xcacb08f2
0xc000c188 0xfdf7fff2
0xc000c18c 0xf4f10102
0xc0108478 0x1e1c1716
0xc010847c 0xd1f12d0c
0xc000c190 0xfcfeff1b
0xc000c194 0xf5350203
0xc0108480 0x01ad1e29
0xc0108484 0xdee924f3
0xc000c198 0x0404f35b
0xc000c19c 0x017ff1fb
0xc0108488 0x0703c7f9
0xc010848c 0xf711eed8
0xc000c1a0 0x304d493e
0xc000c1a4 0x4619181d
0xc0108490 0xfd011825
0xc0108494 0xebd421a0
0xc000c1a8 0x1b5f1f0e
0xc000c1ac 0x452d2b46
0xc0108498 0x270c1bd1
0xc010849c 0xc8c9e000
0xc000c1b0 0x066c1116
0xc000c1b4 0x1c2c3e70
0xc01084a0 0x0bce1b47
0xc01084a4 0xe7e929f0
0xc000c1b8 0x0720370c
0xc000c1bc 0x311b2865
0xc01084a8 0x0d0415e1
0xc01084ac 0xecf9fd32
0xc000c1c0 0x001321f4
0xc000c1c4 0x2b11040d
0xc01084b0 0x3016cb20
0xc01084b4 0x20eafa29
0xc000c1c8 0xfef801f5
0xc000c1cc 0xfaf30106
0xc01084b8 0x382b023c
0xc01084bc 0x26f30e24
0xc000c1d0 0xfffa00f3
0xc000c1d4 0xf6f10102
0xc01084c0 0xe8cafbee
0xc01084c4 0xc9e2d5e6
0xc000c1d8 0xfef800f3
0xc000c1dc 0xf5f10103
0xc01084c8 0xd2c9e4eb
0xc01084cc 0x2c14d6f6
0xc000c600 0xedeffaf9
0xc000c604 0xf8ebf30f
0xc01084d0 0x3d6223eb
0xc01084d4 0xcc0de5f1
0xc000c608 0xedeffaf9
0xc000c60c 0xf8ebf30f
0xc01084d8 0xd1d91e06
0xc01084dc 0x06d22042
0xc000c610 0x2d14fafa
0xc000c614 0xfaed2321
0xc01084e0 0xce07f025
0xc01084e4 0xf73e0814
0xc000c618 0x46280f1d
0xc000c61c 0xef541916
0xc01084e8 0xfbe813de
0xc01084ec 0x11da061e
0xc000c620 0x052c38ef
0xc000c624 0x607007d3
0xc01084f0 0x2314f82a
0xc01084f4 0x0afc03d0
0xc000c628 0xf21019ef
0xc000c62c 0x23210011
0xc01084f8 0x27f0e324
0xc01084fc 0x1d2e19d2
0xc000c630 0xda130407
0xc000c634 0x1f2fd419
0xc0108500 0xde29c1d0
0xc0108504 0xd9f736ee
0xc000c638 0xd6021af4
0xc000c63c 0x2dfcc727
0xc0108508 0xfa43d604
0xc010850c 0x0dd3f203
0xc000c640 0xeff704f4
0xc000c644 0x23fbed14
0xc0108510 0xf80903dc
0xc0108514 0xb7b01b27
0xc000c648 0xf0f3fcfc
0xc000c64c 0xfaedf50f
0xc0108518 0xc51be9f9
0xc010851c 0x28cdebd7
0xc000c650 0xeff1fcf9
0xc000c654 0xfbeef40e
0xc0108520 0x0ccbbd1c
0xc0108524 0xffe0cdd9
0xc000c658 0xefeffaf9
0xc000c65c 0xf9ebf30f
0xc0108528 0x0f301be7
0xc010852c 0xe10130c7
0xc000ca80 0x0dfd11ee
0xc000ca84 0x00000000
0xc0108530 0xcb220323
